unsigned char keyword_model_tflite[] = {
  0x20, 0x00, 0x00, 0x00, 0x54, 0x46, 0x4c, 0x33, 0x00, 0x00, 0x00, 0x00,
  0x14, 0x00, 0x20, 0x00, 0x1c, 0x00, 0x18, 0x00, 0x14, 0x00, 0x10, 0x00,
  0x0c, 0x00, 0x00, 0x00, 0x08, 0x00, 0x04, 0x00, 0x14, 0x00, 0x00, 0x00,
  0x1c, 0x00, 0x00, 0x00, 0x8c, 0x00, 0x00, 0x00, 0xe4, 0x00, 0x00, 0x00,
  0x74, 0x19, 0x00, 0x00, 0x84, 0x19, 0x00, 0x00, 0x84, 0x2b, 0x00, 0x00,
  0x03, 0x00, 0x00, 0x00, 0x01, 0x00, 0x00, 0x00, 0x04, 0x00, 0x00, 0x00,
  0x06, 0xe4, 0xff, 0xff, 0x0c, 0x00, 0x00, 0x00, 0x1c, 0x00, 0x00, 0x00,
  0x3c, 0x00, 0x00, 0x00, 0x0f, 0x00, 0x00, 0x00, 0x73, 0x65, 0x72, 0x76,
  0x69, 0x6e, 0x67, 0x5f, 0x64, 0x65, 0x66, 0x61, 0x75, 0x6c, 0x74, 0x00,
  0x01, 0x00, 0x00, 0x00, 0x04, 0x00, 0x00, 0x00, 0x90, 0xff, 0xff, 0xff,
  0x1a, 0x00, 0x00, 0x00, 0x04, 0x00, 0x00, 0x00, 0x08, 0x00, 0x00, 0x00,
  0x6f, 0x75, 0x74, 0x70, 0x75, 0x74, 0x5f, 0x30, 0x00, 0x00, 0x00, 0x00,
  0x01, 0x00, 0x00, 0x00, 0x04, 0x00, 0x00, 0x00, 0x52, 0xe6, 0xff, 0xff,
  0x04, 0x00, 0x00, 0x00, 0x0c, 0x00, 0x00, 0x00, 0x6b, 0x65, 0x72, 0x61,
  0x73, 0x5f, 0x74, 0x65, 0x6e, 0x73, 0x6f, 0x72, 0x00, 0x00, 0x00, 0x00,
  0x02, 0x00, 0x00, 0x00, 0x34, 0x00, 0x00, 0x00, 0x04, 0x00, 0x00, 0x00,
  0xdc, 0xff, 0xff, 0xff, 0x1d, 0x00, 0x00, 0x00, 0x04, 0x00, 0x00, 0x00,
  0x13, 0x00, 0x00, 0x00, 0x43, 0x4f, 0x4e, 0x56, 0x45, 0x52, 0x53, 0x49,
  0x4f, 0x4e, 0x5f, 0x4d, 0x45, 0x54, 0x41, 0x44, 0x41, 0x54, 0x41, 0x00,
  0x08, 0x00, 0x0c, 0x00, 0x08, 0x00, 0x04, 0x00, 0x08, 0x00, 0x00, 0x00,
  0x1c, 0x00, 0x00, 0x00, 0x04, 0x00, 0x00, 0x00, 0x13, 0x00, 0x00, 0x00,
  0x6d, 0x69, 0x6e, 0x5f, 0x72, 0x75, 0x6e, 0x74, 0x69, 0x6d, 0x65, 0x5f,
  0x76, 0x65, 0x72, 0x73, 0x69, 0x6f, 0x6e, 0x00, 0x1e, 0x00, 0x00, 0x00,
  0x8c, 0x18, 0x00, 0x00, 0x84, 0x18, 0x00, 0x00, 0x70, 0x18, 0x00, 0x00,
  0x5c, 0x18, 0x00, 0x00, 0x40, 0x18, 0x00, 0x00, 0xb0, 0x17, 0x00, 0x00,
  0x20, 0x16, 0x00, 0x00, 0x50, 0x0c, 0x00, 0x00, 0xc0, 0x0b, 0x00, 0x00,
  0x70, 0x0b, 0x00, 0x00, 0x54, 0x0b, 0x00, 0x00, 0x38, 0x0b, 0x00, 0x00,
  0x1c, 0x0b, 0x00, 0x00, 0x0c, 0x05, 0x00, 0x00, 0xfc, 0x00, 0x00, 0x00,
  0xf4, 0x00, 0x00, 0x00, 0xec, 0x00, 0x00, 0x00, 0xe4, 0x00, 0x00, 0x00,
  0xdc, 0x00, 0x00, 0x00, 0xd4, 0x00, 0x00, 0x00, 0xcc, 0x00, 0x00, 0x00,
  0xc4, 0x00, 0x00, 0x00, 0xbc, 0x00, 0x00, 0x00, 0xb4, 0x00, 0x00, 0x00,
  0xac, 0x00, 0x00, 0x00, 0xa4, 0x00, 0x00, 0x00, 0x9c, 0x00, 0x00, 0x00,
  0x94, 0x00, 0x00, 0x00, 0x74, 0x00, 0x00, 0x00, 0x04, 0x00, 0x00, 0x00,
  0x46, 0xe7, 0xff, 0xff, 0x04, 0x00, 0x00, 0x00, 0x60, 0x00, 0x00, 0x00,
  0x0c, 0x00, 0x00, 0x00, 0x08, 0x00, 0x0e, 0x00, 0x08, 0x00, 0x04, 0x00,
  0x08, 0x00, 0x00, 0x00, 0x10, 0x00, 0x00, 0x00, 0x28, 0x00, 0x00, 0x00,
  0x00, 0x00, 0x06, 0x00, 0x08, 0x00, 0x04, 0x00, 0x06, 0x00, 0x00, 0x00,
  0x04, 0x00, 0x00, 0x00, 0x01, 0x00, 0x00, 0x00, 0xea, 0x03, 0x00, 0x00,
  0x0c, 0x00, 0x18, 0x00, 0x14, 0x00, 0x10, 0x00, 0x0c, 0x00, 0x04, 0x00,
  0x0c, 0x00, 0x00, 0x00, 0x09, 0x50, 0x7a, 0xa8, 0x56, 0xcf, 0x1f, 0x49,
  0x02, 0x00, 0x00, 0x00, 0x02, 0x00, 0x00, 0x00, 0x04, 0x00, 0x00, 0x00,
  0x06, 0x00, 0x00, 0x00, 0x32, 0x2e, 0x31, 0x38, 0x2e, 0x30, 0x00, 0x00,
  0xb2, 0xe7, 0xff, 0xff, 0x04, 0x00, 0x00, 0x00, 0x10, 0x00, 0x00, 0x00,
  0x32, 0x2e, 0x31, 0x37, 0x2e, 0x30, 0x00, 0x00, 0x00, 0x00, 0x00, 0x00,
  0x00, 0x00, 0x00, 0x00, 0x94, 0xd6, 0xff, 0xff, 0x98, 0xd6, 0xff, 0xff,
  0x9c, 0xd6, 0xff, 0xff, 0xa0, 0xd6, 0xff, 0xff, 0xa4, 0xd6, 0xff, 0xff,
  0xa8, 0xd6, 0xff, 0xff, 0xac, 0xd6, 0xff, 0xff, 0xb0, 0xd6, 0xff, 0xff,
  0xb4, 0xd6, 0xff, 0xff, 0xb8, 0xd6, 0xff, 0xff, 0xbc, 0xd6, 0xff, 0xff,
  0xc0, 0xd6, 0xff, 0xff, 0xc4, 0xd6, 0xff, 0xff, 0x02, 0xe8, 0xff, 0xff,
  0x04, 0x00, 0x00, 0x00, 0x00, 0x04, 0x00, 0x00, 0x97, 0xf4, 0x3f, 0x3e,
  0xed, 0xf8, 0xc6, 0x3c, 0x1d, 0x4a, 0xdc, 0x20, 0x63, 0x7f, 0x8f, 0xee,
  0xed, 0xe1, 0xcc, 0xae, 0xe4, 0xcb, 0x1a, 0x7d, 0x60, 0x9b, 0xd9, 0xfb,
  0xdc, 0x4c, 0x35, 0x2f, 0xb5, 0x78, 0xb9, 0x09, 0x90, 0xe9, 0xef, 0x8f,
  0xbd, 0xc9, 0x0b, 0x39, 0xfb, 0x18, 0xd3, 0x7f, 0xa6, 0xa6, 0x32, 0x41,
  0xbd, 0xf0, 0x78, 0x2b, 0xfa, 0xfe, 0x89, 0x69, 0xa1, 0xff, 0xb8, 0xed,
  0xdd, 0x1a, 0x81, 0x46, 0xab, 0x0f, 0x29, 0xa5, 0x6a, 0x8b, 0xa9, 0x1e,
  0xde, 0xa9, 0x72, 0x35, 0xe4, 0xd2, 0x9e, 0xad, 0x63, 0x0e, 0xf2, 0x70,
  0xef, 0x0a, 0xdb, 0x8b, 0x66, 0x5d, 0xd7, 0x8e, 0xaf, 0x41, 0x03, 0xcd,
  0x0d, 0x0c, 0xa2, 0x4f, 0x64, 0x29, 0xd3, 0xda, 0xeb, 0xc4, 0x81, 0x11,
  0x6a, 0xa5, 0xc2, 0x4f, 0x6c, 0xf7, 0xc0, 0x2b, 0xa2, 0x0d, 0xcc, 0x69,
  0x98, 0xb4, 0xba, 0xee, 0x7b, 0xa5, 0xb7, 0xb8, 0x7f, 0x33, 0x6f, 0x93,
  0x57, 0x78, 0xff, 0xba, 0x20, 0xa2, 0x0f, 0x6e, 0x6e, 0x00, 0xff, 0x84,
  0xda, 0xe4, 0x2f, 0x45, 0xd1, 0x36, 0x22, 0x52, 0x50, 0x3f, 0xc4, 0x27,
  0xdf, 0x55, 0xb9, 0xa0, 0x65, 0x9f, 0xa7, 0x00, 0xc8, 0x58, 0x79, 0x0c,
  0x09, 0x4a, 0x22, 0x02, 0xe0, 0x9f, 0x54, 0xda, 0x9d, 0x7e, 0x4f, 0x26,
  0x7f, 0x6c, 0x8f, 0xa2, 0xae, 0x9e, 0xed, 0xc5, 0x8a, 0x8d, 0x9f, 0xf8,
  0x20, 0x0a, 0x78, 0x3e, 0xc0, 0x96, 0x73, 0xeb, 0xa8, 0x32, 0x39, 0x7b,
  0x2a, 0xea, 0x56, 0xaf, 0x68, 0x81, 0xe7, 0xc8, 0x5a, 0x61, 0x28, 0x73,
  0xda, 0x51, 0xae, 0xd2, 0x99, 0x26, 0x5c, 0xc0, 0x81, 0xfa, 0xba, 0x56,
  0x57, 0x3c, 0xa3, 0xc9, 0xe0, 0xf8, 0x98, 0x38, 0xce, 0xb8, 0x53, 0x77,
  0x18, 0xe0, 0xbb, 0x3a, 0x64, 0x8b, 0xa1, 0xab, 0xe1, 0x24, 0xe5, 0xb3,
  0xa0, 0x6f, 0xfa, 0x2d, 0x20, 0x6c, 0xe0, 0x51, 0x95, 0x81, 0xee, 0x17,
  0x4a, 0xc1, 0xc2, 0xf1, 0x96, 0x52, 0xdf, 0x55, 0xae, 0xb1, 0xc2, 0xc6,
  0x3d, 0x00, 0xf6, 0xdc, 0xa7, 0x20, 0xdb, 0x47, 0x7f, 0xdc, 0x10, 0x8f,
  0x50, 0x15, 0x34, 0xdb, 0x3e, 0x5f, 0x85, 0xc1, 0x77, 0x02, 0x0b, 0x88,
  0x1f, 0x2a, 0xde, 0x8d, 0x68, 0x0f, 0xe4, 0x41, 0x76, 0x9c, 0x67, 0x77,
  0x8e, 0xe6, 0x30, 0x6d, 0x38, 0x2b, 0x5a, 0x8b, 0x99, 0xd8, 0xe2, 0xe4,
  0x7f, 0x5c, 0x0d, 0x54, 0x8a, 0x35, 0xe5, 0x95, 0xfb, 0xb1, 0x49, 0x60,
  0x34, 0x5c, 0xb4, 0x14, 0x90, 0x38, 0x5c, 0x1e, 0xde, 0x4a, 0x08, 0xbe,
  0x8a, 0x7e, 0x19, 0x0b, 0x2f, 0x84, 0x03, 0x2a, 0xdf, 0xd7, 0xef, 0x6d,
  0x1d, 0x81, 0x5d, 0x8f, 0x4c, 0xc6, 0xc2, 0x71, 0x9d, 0x78, 0x65, 0x6e,
  0x05, 0x46, 0xf1, 0x6a, 0x35, 0x7a, 0x64, 0xcc, 0x19, 0xfa, 0x34, 0xc8,
  0xd8, 0x05, 0xe0, 0xd5, 0x1e, 0x0f, 0xf9, 0x48, 0xe4, 0xbf, 0xb4, 0x17,
  0xde, 0x64, 0xd9, 0x21, 0xd2, 0x4f, 0x5f, 0x7f, 0xb3, 0x4d, 0x4f, 0xec,
  0x02, 0x14, 0x10, 0xd6, 0xc1, 0x29, 0xc5, 0xeb, 0xa2, 0xc4, 0x77, 0xc7,
  0xc8, 0x66, 0x84, 0x7f, 0xd1, 0x6b, 0xd8, 0xaa, 0x46, 0x73, 0x73, 0x6a,
  0x9a, 0xa2, 0x3f, 0xf5, 0xaa, 0x0f, 0x41, 0x0e, 0x97, 0xf6, 0x66, 0x5a,
  0x81, 0x6e, 0x47, 0xf8, 0x1b, 0xb2, 0x2b, 0x67, 0xad, 0x8f, 0x6d, 0x79,
  0x72, 0xa2, 0xdd, 0xc7, 0xc1, 0x6a, 0xe4, 0x44, 0x5e, 0xcc, 0xef, 0xe2,
  0xce, 0x8a, 0xf2, 0x61, 0x74, 0x8b, 0x11, 0x2e, 0xe5, 0x3e, 0xc9, 0x84,
  0xd6, 0x6f, 0xcb, 0xa0, 0xcf, 0xac, 0x1c, 0xf0, 0x29, 0x5a, 0xe6, 0x21,
  0xf5, 0x19, 0xa3, 0x1b, 0x46, 0x3a, 0xbe, 0x7f, 0x9f, 0x46, 0xe0, 0xe7,
  0x53, 0x28, 0x15, 0x9b, 0x4f, 0xdc, 0xb8, 0xf9, 0x03, 0x90, 0x33, 0x5e,
  0xc3, 0x6e, 0x74, 0x61, 0x88, 0x11, 0xa6, 0xc2, 0x13, 0x33, 0x4e, 0x27,
  0xf8, 0x42, 0x1b, 0x68, 0xa0, 0xd5, 0x46, 0xe4, 0x7f, 0x62, 0xd3, 0x0f,
  0x99, 0x41, 0x5a, 0xd8, 0x61, 0xa1, 0x64, 0x2e, 0xa1, 0xe8, 0x5f, 0x4a,
  0xd0, 0x5d, 0xa2, 0xe9, 0x1d, 0xfa, 0xd3, 0xcc, 0x01, 0x7b, 0x37, 0xa1,
  0xda, 0xdc, 0xa8, 0x06, 0x7f, 0x1c, 0x40, 0x55, 0x2c, 0xbb, 0xe9, 0xaa,
  0x28, 0xed, 0xd7, 0x6b, 0x88, 0x99, 0x2b, 0x5f, 0xf4, 0x77, 0xc0, 0xf6,
  0x8e, 0x63, 0xb3, 0x7f, 0x60, 0x94, 0x75, 0x4d, 0x40, 0x8f, 0x15, 0xaf,
  0x89, 0x1d, 0xf7, 0xb8, 0xd9, 0xd3, 0xf8, 0xcb, 0xdb, 0x4c, 0x2f, 0x81,
  0xc9, 0x57, 0xa8, 0xc9, 0xde, 0x5f, 0x8d, 0xe5, 0x24, 0x11, 0xac, 0xda,
  0xb1, 0x8b, 0xc8, 0x00, 0xb3, 0x06, 0x46, 0x2f, 0xc2, 0xdf, 0x79, 0x0f,
  0xdb, 0xa7, 0xd8, 0x91, 0xba, 0xd9, 0xf8, 0x34, 0xe6, 0x46, 0x0e, 0x0a,
  0xb7, 0x76, 0xf5, 0x59, 0xbd, 0xf6, 0xe1, 0x78, 0x98, 0xb7, 0xc4, 0xe6,
  0x62, 0x22, 0x7f, 0x10, 0xeb, 0xdc, 0x58, 0xe6, 0xf4, 0xc4, 0x76, 0xb6,
  0x03, 0xe8, 0x47, 0x19, 0xfe, 0x63, 0x6a, 0x89, 0x21, 0x75, 0xd2, 0xcc,
  0x04, 0xff, 0xd1, 0x7f, 0x4b, 0x06, 0xf9, 0x41, 0x0a, 0xdb, 0x4c, 0xac,
  0x26, 0xef, 0xcd, 0xc4, 0xee, 0x0f, 0xc7, 0x7f, 0x54, 0x5d, 0xe0, 0x63,
  0xec, 0x45, 0xa0, 0x38, 0x08, 0xda, 0xba, 0x02, 0xf5, 0xea, 0x12, 0xf5,
  0x71, 0x3c, 0x35, 0x0b, 0x1e, 0x8e, 0xcb, 0xda, 0xa8, 0x32, 0x16, 0x64,
  0xcc, 0xa4, 0xf7, 0xda, 0x2e, 0xdd, 0xbd, 0x49, 0x7f, 0x3d, 0xeb, 0x3f,
  0x6b, 0x2a, 0x51, 0x79, 0x06, 0xbe, 0x9f, 0xf1, 0xa7, 0xd7, 0xb9, 0xb1,
  0x05, 0xa5, 0x7a, 0xcb, 0xe7, 0xfa, 0xd9, 0x1c, 0xfe, 0xa7, 0x0c, 0x9a,
  0x39, 0xdc, 0x6c, 0x31, 0xcf, 0x07, 0x8a, 0xf7, 0x73, 0xaa, 0xce, 0x2e,
  0x92, 0xbe, 0x89, 0x81, 0x6b, 0x1d, 0xda, 0x47, 0xd0, 0xaf, 0x03, 0xea,
  0x98, 0xaf, 0xd5, 0xc7, 0xa9, 0x93, 0x4b, 0xf4, 0x22, 0xdd, 0x4f, 0x50,
  0x12, 0x49, 0x74, 0x5e, 0x28, 0xbb, 0x81, 0x5e, 0x0d, 0xfc, 0x81, 0x92,
  0xf0, 0x0c, 0xc3, 0x6b, 0x69, 0x7b, 0xb7, 0x39, 0x33, 0x02, 0x51, 0x56,
  0xe1, 0x58, 0x1c, 0xc3, 0x40, 0xe9, 0x50, 0x81, 0xe9, 0x76, 0xe6, 0xc2,
  0xaf, 0xf0, 0xca, 0x1c, 0xa6, 0x47, 0x29, 0xb0, 0xae, 0xc0, 0xeb, 0xe2,
  0xb2, 0xa7, 0x46, 0x76, 0x18, 0x70, 0xc2, 0xbc, 0xe2, 0x9f, 0x63, 0x06,
  0x8e, 0x95, 0x97, 0x1d, 0xd4, 0x25, 0x33, 0x8a, 0x30, 0x6b, 0xc9, 0x6c,
  0xb6, 0xca, 0x30, 0x5b, 0xb6, 0xba, 0x51, 0x5d, 0x7f, 0x26, 0xf0, 0x68,
  0xf7, 0xd8, 0x23, 0xc3, 0xad, 0x9d, 0x98, 0xcb, 0xb0, 0xee, 0x3f, 0x62,
  0x17, 0xb7, 0x4f, 0x4d, 0xd6, 0x47, 0x44, 0x82, 0xdc, 0x58, 0x47, 0x46,
  0x32, 0x23, 0xa5, 0x28, 0xb9, 0x6f, 0x76, 0x63, 0x7f, 0xf8, 0x26, 0x12,
  0x4a, 0x2f, 0xff, 0x5a, 0xf8, 0x14, 0x41, 0x92, 0x8e, 0x1b, 0x7f, 0xee,
  0x9e, 0x1b, 0x5e, 0x4f, 0xc9, 0x29, 0x5f, 0x76, 0xf8, 0x76, 0x03, 0xdd,
  0xf6, 0xb4, 0x94, 0x2a, 0x01, 0x21, 0xa4, 0xcf, 0xbb, 0xb8, 0x44, 0x5f,
  0x1f, 0x75, 0x76, 0x83, 0xe8, 0x7f, 0xc9, 0x18, 0xe7, 0x0e, 0x60, 0x61,
  0x93, 0x7c, 0x58, 0x39, 0x48, 0x3d, 0xed, 0x22, 0xf5, 0x5d, 0x32, 0x1d,
  0x87, 0xa8, 0x19, 0x5f, 0x74, 0x61, 0xd9, 0xeb, 0xa0, 0x92, 0xfb, 0xe1,
  0x1d, 0x66, 0x0e, 0x0f, 0x48, 0xa6, 0x98, 0x9d, 0xc7, 0x2a, 0x5d, 0xc7,
  0xd5, 0x81, 0x14, 0xca, 0x3c, 0xcd, 0xb4, 0x56, 0x83, 0xa1, 0xbd, 0x44,
  0x0e, 0xec, 0xff, 0xff, 0x04, 0x00, 0x00, 0x00, 0x00, 0x06, 0x00, 0x00,
  0x30, 0x63, 0xf3, 0xe3, 0xe3, 0xbd, 0x7f, 0xea, 0xfd, 0x1d, 0xde, 0xf5,
  0xcf, 0xe4, 0x03, 0x9e, 0xd7, 0xae, 0xe1, 0x54, 0x9c, 0xf5, 0xbd, 0x38,
  0x76, 0x5a, 0xdf, 0x12, 0xf0, 0x1f, 0xa0, 0xf3, 0x66, 0xdf, 0x21, 0x06,
  0x8e, 0x9f, 0x47, 0xc7, 0xc2, 0xd6, 0x96, 0x40, 0x21, 0x03, 0xbe, 0x7b,
  0xa6, 0x01, 0x53, 0x3b, 0x90, 0x67, 0x65, 0x97, 0x5e, 0xa6, 0x31, 0xd6,
  0xaa, 0x52, 0x67, 0xde, 0x1c, 0x46, 0x6c, 0x4c, 0xf7, 0xc5, 0x71, 0x07,
  0xeb, 0x1b, 0x9c, 0x7f, 0xde, 0x1f, 0x36, 0x03, 0x87, 0xdd, 0xd2, 0xe4,
  0x35, 0x09, 0xfa, 0x0d, 0x56, 0x15, 0x00, 0x5e, 0x40, 0x1c, 0xec, 0x18,
  0xf1, 0x77, 0x18, 0x77, 0xc0, 0xe4, 0x18, 0x1f, 0x76, 0x72, 0x1c, 0x14,
  0x69, 0x24, 0x36, 0x0a, 0xeb, 0xb0, 0x60, 0xa4, 0xf7, 0x18, 0xe3, 0x7e,
  0xe1, 0x2f, 0x90, 0xf7, 0x2b, 0xd6, 0x00, 0xdf, 0x00, 0x00, 0xa5, 0x59,
  0x68, 0x7f, 0xa7, 0x22, 0xd0, 0xf5, 0x41, 0x92, 0xe2, 0x8f, 0xd2, 0x72,
  0x00, 0xcc, 0x6c, 0xd9, 0xf8, 0x4f, 0xce, 0xfc, 0xf1, 0x24, 0x28, 0x4e,
  0x5b, 0x1e, 0x81, 0xaf, 0xd1, 0xf4, 0x3a, 0xf1, 0x77, 0x4d, 0x4f, 0x14,
  0x1e, 0x1f, 0x1f, 0xf2, 0xb4, 0xbf, 0x28, 0xae, 0xc2, 0x0e, 0xa4, 0xc3,
  0xbd, 0x44, 0x81, 0x00, 0xee, 0xb4, 0x31, 0xf7, 0x35, 0x9b, 0xab, 0x22,
  0xf5, 0x3f, 0x33, 0xed, 0xdd, 0xfd, 0x2f, 0x22, 0x8f, 0xc4, 0xb0, 0x2a,
  0x77, 0x56, 0x9d, 0xcb, 0x67, 0x5a, 0x32, 0x03, 0xfd, 0xc4, 0x39, 0xd4,
  0x11, 0xbb, 0x3a, 0x16, 0xa6, 0x79, 0x96, 0x7f, 0xf7, 0xbf, 0x73, 0xc1,
  0xb6, 0x25, 0x94, 0x9b, 0xbd, 0x4d, 0xa2, 0xb5, 0x31, 0xc9, 0xc3, 0xac,
  0x2a, 0x8a, 0xc7, 0xa0, 0xd9, 0x36, 0x18, 0x14, 0x29, 0x0d, 0xb3, 0x03,
  0x65, 0x52, 0xf6, 0xd3, 0x42, 0xe1, 0x15, 0x13, 0xc7, 0xf9, 0xec, 0x4a,
  0x24, 0x2d, 0xc9, 0xab, 0xf6, 0x34, 0xb1, 0xa0, 0x22, 0x1e, 0x6d, 0x6d,
  0x8f, 0x98, 0x53, 0xd3, 0xcb, 0x32, 0x1d, 0x36, 0xc9, 0x81, 0x06, 0x89,
  0x30, 0xa3, 0x5b, 0x3d, 0xfe, 0x21, 0x12, 0xbf, 0x73, 0x73, 0x3d, 0x8c,
  0xe1, 0x16, 0x66, 0x38, 0x3c, 0xe2, 0x16, 0x32, 0x4b, 0xaf, 0x4b, 0x3a,
  0x7f, 0xae, 0x1d, 0x4a, 0x44, 0x13, 0xe6, 0xe4, 0xc3, 0xeb, 0x43, 0xa4,
  0x39, 0x12, 0xe2, 0xf8, 0x72, 0xee, 0xc0, 0x03, 0xcf, 0x54, 0x61, 0xa4,
  0xc9, 0x9f, 0x21, 0x32, 0xff, 0x2d, 0x91, 0xc3, 0xb5, 0x99, 0x1e, 0x42,
  0x05, 0xc5, 0xdc, 0xb8, 0xf0, 0xf4, 0x54, 0x9d, 0xe9, 0xd4, 0x14, 0xfb,
  0xf8, 0xa4, 0x7d, 0x5f, 0xf8, 0xec, 0xea, 0x49, 0xd7, 0xf9, 0x05, 0x58,
  0x3c, 0x1a, 0x4c, 0x61, 0xbe, 0xd1, 0x14, 0x7f, 0xe9, 0xc5, 0xe9, 0x3a,
  0x03, 0xfc, 0xa6, 0x17, 0xd4, 0x3d, 0x3f, 0xf9, 0x5b, 0x27, 0x4e, 0xf4,
  0xa8, 0x56, 0x2e, 0x3e, 0x15, 0x5f, 0xd8, 0x47, 0x92, 0x1b, 0x38, 0x06,
  0x59, 0xc7, 0xf9, 0x30, 0xb7, 0xfd, 0xbc, 0x70, 0x0c, 0x67, 0xf4, 0x91,
  0x29, 0x4c, 0xdb, 0x94, 0xee, 0x15, 0x81, 0x23, 0x23, 0x39, 0x3e, 0x07,
  0xc2, 0x4a, 0xb6, 0x95, 0x5c, 0xfe, 0xb3, 0x96, 0x0e, 0x62, 0xb8, 0x59,
  0xd6, 0x62, 0x60, 0x12, 0x03, 0x0d, 0xbd, 0xa7, 0xb5, 0x50, 0x37, 0xec,
  0x53, 0xdb, 0xba, 0xdd, 0x07, 0xb7, 0x15, 0x7f, 0x5e, 0xc1, 0xb8, 0xb7,
  0x78, 0x06, 0x48, 0xbd, 0x24, 0xf1, 0xab, 0x15, 0x4a, 0x53, 0x3a, 0x37,
  0x76, 0x20, 0xba, 0xef, 0x38, 0x3d, 0xdf, 0x9c, 0xcd, 0x9a, 0xbf, 0x06,
  0x00, 0x69, 0x81, 0x58, 0x0e, 0x1b, 0xf3, 0x59, 0xe0, 0xcc, 0x00, 0xd5,
  0x82, 0xbf, 0xe3, 0x5c, 0x2a, 0x42, 0x8e, 0xc7, 0x61, 0xa0, 0x0a, 0x05,
  0xfd, 0x14, 0x6c, 0x4d, 0x14, 0xe7, 0xd6, 0x05, 0x29, 0x4b, 0x91, 0x71,
  0xb4, 0x53, 0x20, 0x32, 0xf4, 0x87, 0x4f, 0x0f, 0x46, 0x9b, 0xf2, 0x14,
  0x3e, 0xf7, 0x5d, 0x29, 0xf2, 0xe3, 0xd2, 0x64, 0x1d, 0xae, 0x08, 0x73,
  0xb0, 0x0c, 0x81, 0x66, 0x89, 0xba, 0x16, 0xd6, 0x18, 0x40, 0x0d, 0xd3,
  0x64, 0xb8, 0x60, 0xce, 0xe7, 0x18, 0x23, 0xfe, 0x68, 0x3b, 0xb3, 0x36,
  0xbc, 0xba, 0xd1, 0xc8, 0x89, 0x22, 0x11, 0x47, 0x66, 0x81, 0xaf, 0xb0,
  0x3d, 0x6c, 0x11, 0x0d, 0x07, 0x2a, 0xac, 0x49, 0x4f, 0xc0, 0xf5, 0xb9,
  0x52, 0x52, 0x9e, 0xdb, 0x6d, 0xd8, 0x30, 0xb8, 0x95, 0x82, 0x06, 0x87,
  0x84, 0x06, 0x8a, 0xf6, 0xca, 0xca, 0xb9, 0x2a, 0x95, 0x29, 0xe9, 0x39,
  0x63, 0xa1, 0x1f, 0x59, 0x42, 0x67, 0xa6, 0xf3, 0x01, 0x0c, 0xcf, 0x25,
  0x8a, 0xff, 0xa0, 0xc0, 0xd5, 0x5c, 0xf8, 0xfe, 0xec, 0x91, 0xc7, 0x6c,
  0xa2, 0x1f, 0x25, 0x78, 0x25, 0x84, 0x96, 0x58, 0xcf, 0xfe, 0xe2, 0x06,
  0xc3, 0xbf, 0xc1, 0x33, 0x81, 0xc6, 0x2f, 0xb8, 0xde, 0x00, 0x9e, 0x00,
  0xb4, 0x95, 0xd4, 0xa8, 0x36, 0xb4, 0x40, 0x94, 0x49, 0x27, 0xe2, 0x19,
  0xfb, 0x21, 0xb6, 0x23, 0x82, 0xbb, 0x55, 0x21, 0xc5, 0x97, 0x68, 0x4c,
  0xfe, 0x40, 0x28, 0xa6, 0xcf, 0xf0, 0xec, 0x19, 0x28, 0xac, 0x16, 0x30,
  0xd1, 0xe9, 0x28, 0x61, 0x39, 0x28, 0x41, 0x81, 0x91, 0xe4, 0x64, 0xe4,
  0x5a, 0x0b, 0xe3, 0xc2, 0x43, 0x98, 0xcd, 0xd8, 0x9f, 0x5e, 0xa3, 0x0b,
  0xa7, 0xab, 0xa8, 0x51, 0xfb, 0xea, 0x5c, 0x2b, 0x9c, 0x19, 0xb7, 0xdb,
  0x8e, 0xa6, 0xd1, 0x5a, 0x68, 0xb3, 0x17, 0x7f, 0x77, 0x9d, 0x09, 0x26,
  0x75, 0x0c, 0xe5, 0x79, 0x1c, 0x06, 0x05, 0x1a, 0xd8, 0x76, 0xe7, 0xc9,
  0x58, 0xab, 0xab, 0x47, 0xc8, 0x51, 0x29, 0x44, 0xa9, 0xfb, 0x5c, 0xb3,
  0xf9, 0x0a, 0xc9, 0x11, 0xcb, 0xd6, 0x65, 0x0d, 0x3e, 0xae, 0xf2, 0x39,
  0xc8, 0x61, 0x58, 0xb0, 0x05, 0xde, 0x9c, 0x04, 0xae, 0xf0, 0x1b, 0xc2,
  0x19, 0x18, 0x8e, 0xd6, 0x2a, 0x3c, 0xc9, 0x81, 0x36, 0x49, 0xd3, 0x1b,
  0x36, 0xde, 0x3c, 0x0a, 0xe1, 0x64, 0xc1, 0x30, 0x4b, 0xf6, 0xa2, 0xdd,
  0xef, 0x34, 0x77, 0xef, 0xf4, 0x3a, 0xd0, 0x7a, 0xa3, 0x2d, 0x5f, 0xdd,
  0x3f, 0x04, 0x0d, 0x77, 0x01, 0xcf, 0x7f, 0xdd, 0x4d, 0xe9, 0x0a, 0xa1,
  0xd7, 0x24, 0xff, 0xd8, 0x0d, 0xb5, 0x50, 0x19, 0x88, 0xfc, 0x63, 0xc7,
  0xd5, 0x30, 0xaf, 0x50, 0xe5, 0xb2, 0xa5, 0xf2, 0x47, 0xc1, 0x3a, 0xfc,
  0x25, 0x4f, 0x97, 0x33, 0x3b, 0x58, 0xb2, 0x49, 0x41, 0x01, 0x1d, 0x4e,
  0x57, 0xb0, 0x38, 0x7f, 0xf0, 0x0a, 0xd0, 0x11, 0xe4, 0xe7, 0xa1, 0x52,
  0xdc, 0x5b, 0xce, 0x1f, 0x4c, 0xb4, 0x48, 0x57, 0xf6, 0xb7, 0x94, 0xcf,
  0x91, 0x07, 0xb1, 0xaa, 0xb7, 0x40, 0x5f, 0xaa, 0x32, 0x00, 0x13, 0xe1,
  0xf7, 0xb4, 0x43, 0x07, 0xc8, 0xab, 0x62, 0xf2, 0xc6, 0x62, 0x29, 0x45,
  0x1d, 0x81, 0x07, 0x6c, 0xb1, 0x46, 0xe8, 0xfa, 0x52, 0x2f, 0x2f, 0x5d,
  0xea, 0x38, 0xb1, 0xc6, 0x17, 0x17, 0xf8, 0x60, 0x58, 0x56, 0xe3, 0x43,
  0xba, 0x7b, 0x42, 0x8d, 0xcc, 0x04, 0x27, 0x5c, 0x2e, 0x0a, 0xb7, 0x67,
  0x61, 0xe7, 0x97, 0x76, 0xc6, 0x61, 0xd6, 0xa9, 0x55, 0x9b, 0x18, 0x0e,
  0xe8, 0x64, 0xe5, 0x08, 0x42, 0x06, 0x60, 0x46, 0xc5, 0xc9, 0x43, 0x17,
  0xdb, 0x75, 0xa7, 0xb3, 0x81, 0x18, 0x9b, 0xd4, 0xdf, 0xc6, 0xc2, 0x18,
  0xbe, 0xea, 0x69, 0xa2, 0x9f, 0xda, 0xd9, 0x2b, 0x33, 0x62, 0x47, 0x1d,
  0xc6, 0x94, 0x93, 0x00, 0x4a, 0x4a, 0x31, 0x43, 0x13, 0x9e, 0x9d, 0xf5,
  0xdf, 0x23, 0x7f, 0xa4, 0x26, 0xc9, 0x5b, 0x1c, 0x4c, 0x10, 0xde, 0xa5,
  0x98, 0xbd, 0x31, 0x5c, 0x06, 0x7a, 0xc3, 0x08, 0x6f, 0xaa, 0x09, 0xaa,
  0x0b, 0x31, 0x0f, 0x14, 0x74, 0x9d, 0x05, 0xfe, 0x01, 0xe0, 0x77, 0x9e,
  0xee, 0x39, 0x49, 0x03, 0x32, 0xa6, 0x58, 0x31, 0xc1, 0xc5, 0xfe, 0x17,
  0xb9, 0x65, 0xe8, 0x15, 0xa1, 0x60, 0xdb, 0xbc, 0x5c, 0x4c, 0x1b, 0x1f,
  0x72, 0xf7, 0x0b, 0xb2, 0xed, 0x76, 0x13, 0x81, 0xed, 0xa2, 0x8a, 0x1e,
  0x0e, 0x1d, 0xc0, 0x57, 0xfb, 0xc2, 0xe1, 0xfd, 0x4d, 0x10, 0xa2, 0xda,
  0x01, 0x3f, 0x28, 0x3e, 0xd5, 0xb5, 0xe1, 0x28, 0x29, 0x7a, 0xc4, 0xf6,
  0x99, 0x3d, 0x7f, 0xdf, 0xa5, 0xfc, 0x79, 0xec, 0x40, 0x15, 0x60, 0x27,
  0xcb, 0xdf, 0x99, 0xde, 0xa8, 0xb0, 0xe7, 0x09, 0x0c, 0xd4, 0x5e, 0x60,
  0x3c, 0x42, 0xd4, 0x5b, 0x87, 0x91, 0x04, 0xb6, 0x8b, 0x28, 0xd2, 0x81,
  0x26, 0x27, 0x5e, 0xd3, 0xb4, 0xf7, 0x61, 0x44, 0xb9, 0xca, 0xee, 0xb7,
  0x99, 0x49, 0x54, 0x01, 0x3e, 0x9a, 0x2b, 0x39, 0x4a, 0x0b, 0xaf, 0x4c,
  0xd0, 0x01, 0xea, 0x30, 0xff, 0xfe, 0x81, 0x91, 0x35, 0xc8, 0x45, 0x15,
  0x57, 0x5b, 0x73, 0x5d, 0x4d, 0xe1, 0x92, 0x01, 0x05, 0x0b, 0x5b, 0x95,
  0x52, 0xd6, 0xd5, 0xa3, 0xde, 0x49, 0xd2, 0x74, 0xa2, 0xfc, 0xa3, 0xa4,
  0xbb, 0x96, 0x9b, 0x97, 0x6a, 0xa2, 0x81, 0x6c, 0x72, 0x26, 0x03, 0x4f,
  0xc5, 0x58, 0xb6, 0x78, 0x6e, 0x18, 0x4a, 0xda, 0xc8, 0x44, 0x24, 0x09,
  0x34, 0x5d, 0xcc, 0x27, 0x81, 0x7f, 0x0e, 0xf7, 0xc2, 0xd1, 0x9f, 0x76,
  0x78, 0xfc, 0xef, 0x29, 0xb6, 0x36, 0x07, 0xf9, 0x69, 0x79, 0xfc, 0x72,
  0x20, 0x7c, 0xc5, 0x82, 0x15, 0x3d, 0x62, 0x04, 0x1a, 0xdd, 0x0e, 0xc9,
  0x4b, 0x51, 0x18, 0x8d, 0xa7, 0x4c, 0xa3, 0xf2, 0xa0, 0xf3, 0x9a, 0xb7,
  0x3b, 0x29, 0x73, 0x42, 0xea, 0xdf, 0xf5, 0x22, 0xf4, 0x69, 0x77, 0x54,
  0x6b, 0xb6, 0x91, 0x3a, 0x44, 0x0f, 0x3d, 0x88, 0xa9, 0x70, 0x1e, 0x05,
  0xcd, 0xef, 0x7f, 0x92, 0x12, 0xcc, 0x14, 0xa8, 0xf7, 0xcd, 0xe5, 0x46,
  0xc6, 0x35, 0x52, 0x33, 0xda, 0x48, 0xdf, 0xd7, 0x57, 0xd4, 0xe1, 0x8d,
  0xfa, 0x53, 0xa0, 0xd7, 0x3c, 0x83, 0x42, 0xb8, 0x22, 0x20, 0x3c, 0x9b,
  0xf7, 0x02, 0x2f, 0x49, 0x98, 0x15, 0x45, 0x47, 0xee, 0x58, 0x05, 0x85,
  0xd7, 0x6f, 0xe4, 0x51, 0xed, 0x23, 0x3e, 0xbd, 0x2f, 0xda, 0xd0, 0x03,
  0x6a, 0xbd, 0x2e, 0x6a, 0x4a, 0x5b, 0x60, 0x26, 0x47, 0xc6, 0x81, 0x57,
  0x3a, 0xbe, 0x69, 0xeb, 0xdb, 0x57, 0xd2, 0xec, 0x21, 0x0c, 0x81, 0xf4,
  0x0c, 0x64, 0xa5, 0xe1, 0x73, 0xb6, 0x0b, 0x6d, 0x49, 0xde, 0x2a, 0xc0,
  0x39, 0x5f, 0xf6, 0xab, 0x11, 0x36, 0xa9, 0xe4, 0x9a, 0xdf, 0xda, 0xbd,
  0xa4, 0xc3, 0xa1, 0xcf, 0x7a, 0x45, 0x16, 0xf1, 0x92, 0xe6, 0xe0, 0x37,
  0xc4, 0x90, 0x20, 0x5f, 0x29, 0xc4, 0x06, 0xdd, 0x4a, 0xa1, 0xbf, 0x41,
  0xb3, 0x2d, 0xaf, 0x29, 0xe0, 0xa2, 0x1e, 0xe6, 0xfa, 0x31, 0x72, 0xdd,
  0xa9, 0xd1, 0x7f, 0x75, 0xb7, 0xd9, 0x5a, 0xd6, 0x58, 0x2e, 0xd9, 0x8a,
  0xda, 0xd8, 0xb1, 0xea, 0x78, 0xe5, 0x76, 0xd8, 0x98, 0x9d, 0xca, 0x6d,
  0xdf, 0xf6, 0x55, 0x04, 0x4a, 0x3d, 0xc4, 0x2e, 0xa1, 0xc4, 0xb0, 0xbe,
  0x31, 0x1c, 0xa2, 0xb1, 0x81, 0xa0, 0x5a, 0xd5, 0x0b, 0xad, 0xc6, 0x5b,
  0xc3, 0x17, 0x17, 0xcd, 0x32, 0x5d, 0xad, 0xda, 0xbe, 0x04, 0x49, 0xa9,
  0xb5, 0xa4, 0x15, 0x9f, 0x31, 0xb0, 0x33, 0xb5, 0xab, 0xaf, 0x3f, 0xa3,
  0x1a, 0xf2, 0xff, 0xff, 0x04, 0x00, 0x00, 0x00, 0x0c, 0x00, 0x00, 0x00,
  0xff, 0xff, 0xff, 0xff, 0x62, 0x00, 0x00, 0x00, 0x10, 0x00, 0x00, 0x00,
  0x32, 0xf2, 0xff, 0xff, 0x04, 0x00, 0x00, 0x00, 0x0c, 0x00, 0x00, 0x00,
  0xff, 0xff, 0xff, 0xff, 0x31, 0x00, 0x00, 0x00, 0x10, 0x00, 0x00, 0x00,
  0x4a, 0xf2, 0xff, 0xff, 0x04, 0x00, 0x00, 0x00, 0x0c, 0x00, 0x00, 0x00,
  0xff, 0xff, 0xff, 0xff, 0x2f, 0x00, 0x00, 0x00, 0x20, 0x00, 0x00, 0x00,
  0x62, 0xf2, 0xff, 0xff, 0x04, 0x00, 0x00, 0x00, 0x40, 0x00, 0x00, 0x00,
  0x98, 0x95, 0x64, 0xb9, 0xa7, 0x26, 0x80, 0xbc, 0x11, 0xea, 0x21, 0xbc,
  0x14, 0x3c, 0xcb, 0xbc, 0x9a, 0x81, 0x3a, 0xbc, 0x6a, 0x27, 0x3f, 0xbb,
  0xe4, 0x0e, 0x67, 0xba, 0xe3, 0x0f, 0x51, 0xbc, 0x3d, 0xff, 0x7f, 0xbb,
  0xec, 0x6e, 0x89, 0x3c, 0xc2, 0x46, 0x81, 0x3c, 0x1a, 0xa8, 0x9c, 0x3c,
  0xeb, 0x89, 0x05, 0xbb, 0x0f, 0xd7, 0xda, 0xbb, 0x78, 0x76, 0xc6, 0xbc,
  0x07, 0x06, 0x92, 0xbc, 0xae, 0xf2, 0xff, 0xff, 0x04, 0x00, 0x00, 0x00,
  0x80, 0x00, 0x00, 0x00, 0x9c, 0xe2, 0xae, 0xbb, 0x07, 0x4d, 0x01, 0xbc,
  0xac, 0x34, 0x82, 0xbc, 0x30, 0x31, 0xdb, 0x3c, 0xf9, 0xb1, 0xa0, 0xbc,
  0xeb, 0x23, 0x75, 0xba, 0xa2, 0x58, 0xf3, 0xba, 0xaa, 0xfe, 0x51, 0xbb,
  0x7a, 0xf9, 0x77, 0xbc, 0x35, 0xd6, 0x4c, 0xbb, 0x8c, 0xb4, 0x9b, 0x3a,
  0x58, 0x73, 0x42, 0xbc, 0x34, 0xd4, 0x81, 0xbc, 0x4e, 0xdd, 0x7f, 0x3c,
  0x7c, 0xda, 0xd7, 0x3c, 0xda, 0x94, 0x25, 0x3c, 0xf2, 0x97, 0xd3, 0xbc,
  0xb8, 0x64, 0xb9, 0xbc, 0x19, 0x05, 0xcc, 0x3c, 0xe4, 0x0f, 0x83, 0x3c,
  0xc6, 0x51, 0x98, 0xbc, 0x3d, 0x99, 0x2b, 0xbc, 0x52, 0x53, 0x2e, 0xbc,
  0xbb, 0xab, 0x82, 0xbc, 0xc5, 0x84, 0x92, 0xbc, 0x93, 0x22, 0x14, 0x3c,
  0x8c, 0x6f, 0x47, 0xbc, 0x76, 0x1b, 0x02, 0x3c, 0xa4, 0xe6, 0x1b, 0xbc,
  0x29, 0xd6, 0xde, 0xba, 0x0f, 0x87, 0x78, 0xbc, 0x3e, 0x22, 0x59, 0xbc,
  0x3a, 0xf3, 0xff, 0xff, 0x04, 0x00, 0x00, 0x00, 0xc0, 0x09, 0x00, 0x00,
  0x5a, 0x07, 0x3b, 0x3e, 0xbd, 0x87, 0x32, 0x3e, 0x62, 0x4a, 0x16, 0xbe,
  0xc9, 0xda, 0x21, 0x3e, 0xfd, 0xd7, 0xe6, 0x3d, 0xb8, 0xa5, 0x1b, 0x3e,
  0x6c, 0x3a, 0x9b, 0xbe, 0xc3, 0xef, 0x07, 0xbc, 0x93, 0x1c, 0x8b, 0x3e,
  0x8a, 0x17, 0x60, 0xbe, 0xff, 0x53, 0x0b, 0xbe, 0x50, 0x36, 0xd3, 0xbb,
  0x38, 0x24, 0x94, 0xbd, 0xb2, 0x91, 0x16, 0x3e, 0x4d, 0xe1, 0xba, 0xbd,
  0xd0, 0xfa, 0x21, 0x3e, 0xf6, 0x65, 0x1f, 0x3e, 0x4e, 0x3d, 0x1e, 0xbe,
  0xfc, 0x26, 0x27, 0x3e, 0x1e, 0x54, 0x2c, 0xbe, 0xed, 0xc8, 0x08, 0xbe,
  0x94, 0xe5, 0x3c, 0x3e, 0x3c, 0xb4, 0x3e, 0x3e, 0x19, 0xc2, 0x10, 0x3d,
  0xe8, 0xe5, 0xb5, 0x3d, 0x42, 0x80, 0x45, 0x3d, 0x9e, 0x0e, 0x20, 0xbe,
  0xab, 0xb7, 0x62, 0xbe, 0xb4, 0xea, 0xa5, 0x3d, 0x5f, 0x8d, 0x75, 0xbc,
  0x27, 0xc8, 0x74, 0xbe, 0xaa, 0x07, 0x40, 0x3e, 0x13, 0x56, 0x80, 0xbc,
  0xda, 0x76, 0x0d, 0x3e, 0x72, 0xc9, 0x6c, 0x3e, 0x10, 0x37, 0x54, 0x3e,
  0xcf, 0x16, 0x78, 0xbe, 0x13, 0x5a, 0x60, 0xbb, 0x51, 0x25, 0x29, 0xbc,
  0x19, 0xe1, 0x16, 0xbe, 0x2e, 0xcd, 0x2c, 0xbe, 0x7f, 0x5e, 0xa2, 0xbe,
  0x62, 0xa7, 0x82, 0x3e, 0x07, 0x04, 0x77, 0xbe, 0xdb, 0x04, 0x29, 0x3e,
  0x41, 0xe9, 0xd2, 0xbd, 0x81, 0x2d, 0x24, 0x3e, 0xf5, 0xc0, 0x14, 0xbe,
  0xcd, 0x3e, 0x5d, 0x3e, 0xdf, 0x31, 0x26, 0x3d, 0xfa, 0x4f, 0x18, 0xbd,
  0x44, 0xb8, 0x7d, 0xbe, 0xac, 0xee, 0xd6, 0x3d, 0xc3, 0xc2, 0x65, 0xbe,
  0x7a, 0xa5, 0x60, 0xbe, 0xd5, 0x27, 0x90, 0xbd, 0x76, 0x44, 0xe2, 0x3d,
  0xbe, 0x38, 0xda, 0x3c, 0x18, 0xb4, 0xfa, 0xbd, 0x10, 0x42, 0x19, 0x3d,
  0xd4, 0x9e, 0x69, 0xbd, 0xbb, 0x3c, 0x9a, 0x3d, 0xe3, 0x97, 0xe1, 0xbd,
  0x6b, 0x7c, 0x87, 0xbd, 0xb8, 0x21, 0xe6, 0x3c, 0x51, 0xb1, 0xb0, 0xbd,
  0x9d, 0xdd, 0x4f, 0x3e, 0xad, 0x89, 0x85, 0x3d, 0x32, 0x21, 0x15, 0x3c,
  0x13, 0xed, 0x18, 0xbe, 0xf1, 0xbb, 0x6c, 0xbe, 0x94, 0x22, 0xe3, 0xbd,
  0xa2, 0xba, 0x3b, 0x3e, 0x22, 0xbd, 0xbf, 0x3d, 0xc6, 0xd8, 0x99, 0x3d,
  0xd8, 0x93, 0x64, 0xbe, 0x85, 0x97, 0x41, 0xbe, 0xff, 0x4e, 0x7c, 0xbe,
  0x19, 0xb3, 0x74, 0xbe, 0xc8, 0x22, 0xb9, 0x3c, 0xee, 0xf9, 0xae, 0xbd,
  0xd4, 0xbe, 0xf1, 0x3d, 0x7c, 0xa0, 0x47, 0x3d, 0x68, 0xe7, 0x14, 0x3e,
  0x89, 0xef, 0x81, 0xbd, 0x14, 0x9c, 0x8a, 0xbd, 0xce, 0x49, 0xa8, 0xbd,
  0x4f, 0xe0, 0xb8, 0xbd, 0x56, 0xf5, 0x67, 0xbc, 0x8a, 0x6e, 0x0d, 0x3c,
  0x86, 0x33, 0xde, 0xbd, 0x98, 0x83, 0x41, 0xbe, 0x46, 0x2f, 0x17, 0x3c,
  0x23, 0x3e, 0x1e, 0xbe, 0xec, 0x29, 0x31, 0x3e, 0xf5, 0xd4, 0xbc, 0x3d,
  0x08, 0x82, 0x27, 0xbd, 0x52, 0xe7, 0xb2, 0xbd, 0x5f, 0xa3, 0xf6, 0x3b,
  0x95, 0xd2, 0xf0, 0xbd, 0xff, 0x64, 0x02, 0x3e, 0x6f, 0x51, 0xa4, 0x3d,
  0x82, 0x26, 0x9e, 0x3b, 0x9c, 0xf8, 0x42, 0xbd, 0xf4, 0x38, 0xee, 0x3d,
  0x02, 0xab, 0x4b, 0xbc, 0xff, 0x33, 0x4f, 0x3e, 0x3c, 0x7e, 0xa5, 0x3e,
  0xd2, 0xb1, 0xc8, 0x3d, 0x62, 0xc7, 0xc4, 0xbd, 0x73, 0x4c, 0x08, 0xbe,
  0xbb, 0xd8, 0x3b, 0x3e, 0xd7, 0x6e, 0x2f, 0xbd, 0xcf, 0x73, 0x00, 0x3e,
  0x09, 0xe2, 0x69, 0xbe, 0xdc, 0xa2, 0x9d, 0xbd, 0x4f, 0x53, 0xa4, 0xbb,
  0x76, 0x26, 0x85, 0x3d, 0xa1, 0x86, 0x72, 0xbe, 0x8d, 0xda, 0x60, 0x3d,
  0xf9, 0xbd, 0x5c, 0xbe, 0xc5, 0x3d, 0x94, 0x3d, 0x9f, 0x25, 0x97, 0xbd,
  0xd2, 0x69, 0xfb, 0x3d, 0xaf, 0x91, 0x0b, 0xbc, 0x3a, 0xf2, 0x0b, 0xbe,
  0x70, 0x8d, 0xd3, 0xbd, 0xcf, 0x4a, 0xe7, 0x3d, 0x3e, 0xd4, 0x59, 0x3c,
  0x30, 0x02, 0x50, 0xbe, 0xa6, 0x4c, 0x56, 0xbe, 0x67, 0x5a, 0x44, 0xbd,
  0xfe, 0x42, 0x56, 0x3d, 0xc7, 0x45, 0x49, 0x3e, 0xe1, 0x8d, 0x9b, 0xbd,
  0xbe, 0x3a, 0x1d, 0xbb, 0xb5, 0xe4, 0x86, 0x3e, 0xed, 0x99, 0x06, 0x3e,
  0x65, 0xc5, 0x46, 0x3e, 0x3d, 0x84, 0x61, 0xbe, 0xfa, 0xa8, 0x8d, 0x3d,
  0x5f, 0x59, 0x63, 0x3e, 0x4f, 0x18, 0x95, 0x3e, 0x3e, 0x24, 0x69, 0x3e,
  0xd5, 0xd7, 0x04, 0xbd, 0x8b, 0xf5, 0x09, 0x3e, 0x27, 0x5c, 0x08, 0xbe,
  0x44, 0xc0, 0x76, 0x3e, 0x65, 0xb0, 0x08, 0x3e, 0xe5, 0xe0, 0x52, 0xbe,
  0xa2, 0x71, 0x26, 0xbe, 0xa3, 0xbb, 0x4d, 0xbe, 0x52, 0x7f, 0x9c, 0x3b,
  0x63, 0x67, 0x32, 0xbe, 0x4a, 0xd4, 0xc6, 0xbb, 0x87, 0x7c, 0x33, 0xbd,
  0xde, 0xf5, 0x16, 0xbe, 0xb1, 0xee, 0xf4, 0x3d, 0xd6, 0x27, 0x5f, 0x3e,
  0x42, 0xf7, 0x82, 0x3e, 0x84, 0x1d, 0xc9, 0x3c, 0x9a, 0x30, 0x83, 0xbd,
  0x23, 0x5a, 0x44, 0x3e, 0x11, 0xe5, 0xc2, 0xbd, 0xb3, 0xca, 0x05, 0x3b,
  0xae, 0x38, 0x1d, 0x3e, 0x49, 0x9f, 0x62, 0xbe, 0x2c, 0x04, 0xb7, 0xbc,
  0xec, 0x9e, 0x1a, 0x3e, 0xf2, 0xee, 0x9f, 0xba, 0x49, 0x12, 0x89, 0x3c,
  0xb0, 0x52, 0xba, 0xbd, 0x13, 0x9f, 0x14, 0xbe, 0xca, 0x08, 0x8b, 0x3e,
  0x2b, 0x6f, 0xd4, 0x3d, 0xad, 0x8a, 0x4c, 0x3e, 0xe9, 0xa0, 0xae, 0xbd,
  0xea, 0x9d, 0x3a, 0x3d, 0xb2, 0xdd, 0x6e, 0x3e, 0x2e, 0xf7, 0x85, 0x3d,
  0x65, 0xe6, 0x46, 0x3d, 0x53, 0x06, 0xb6, 0x3d, 0x00, 0xfc, 0x13, 0x3e,
  0x07, 0x3b, 0xb6, 0x3d, 0x72, 0xc9, 0x2e, 0x3e, 0xb2, 0x64, 0x16, 0x3e,
  0x05, 0x6f, 0x9b, 0xbd, 0xbf, 0x05, 0xa0, 0x3d, 0xcc, 0x73, 0x61, 0xbe,
  0xc4, 0x17, 0xe0, 0x3d, 0x68, 0x91, 0x00, 0x3e, 0x8c, 0x98, 0x41, 0xbe,
  0x2f, 0x58, 0x6c, 0x3e, 0x6c, 0x54, 0xab, 0x3d, 0xfc, 0x29, 0x58, 0xbe,
  0x5b, 0x44, 0xcf, 0xbc, 0x7e, 0x11, 0x76, 0x3e, 0xe4, 0x7c, 0x8d, 0xbe,
  0xd6, 0xf2, 0xa3, 0x3d, 0xc0, 0xad, 0x81, 0x3e, 0xd7, 0x23, 0xf1, 0x3d,
  0x91, 0xfd, 0x1b, 0xbe, 0x8c, 0x9f, 0x00, 0xbe, 0x62, 0x72, 0x77, 0xbd,
  0xcc, 0xf6, 0xf8, 0xbd, 0x16, 0x4b, 0xc9, 0x3d, 0x5b, 0x5b, 0x36, 0xbe,
  0xd8, 0x78, 0x68, 0xba, 0x37, 0x5a, 0x4b, 0xbe, 0xb0, 0x3a, 0xc6, 0x3d,
  0x9e, 0xb5, 0x70, 0xbe, 0x87, 0xe0, 0x80, 0xbe, 0x61, 0x64, 0x26, 0x3d,
  0xcb, 0xee, 0x9f, 0x3d, 0xd2, 0x81, 0x42, 0x3e, 0xf5, 0xfa, 0x14, 0xbe,
  0xd0, 0x4d, 0x88, 0xbd, 0x40, 0xd2, 0x10, 0x3e, 0x5a, 0xda, 0x86, 0x3d,
  0x45, 0xab, 0x87, 0xbe, 0xfb, 0x8c, 0x6d, 0xbe, 0xff, 0xbb, 0x64, 0x3e,
  0x28, 0x35, 0x1b, 0x3e, 0x36, 0xd6, 0x60, 0xbe, 0x16, 0x8e, 0x36, 0xbe,
  0x2b, 0x66, 0x70, 0x3e, 0x6f, 0x5d, 0x54, 0xbe, 0xde, 0xd9, 0x09, 0x3e,
  0xda, 0x47, 0x65, 0x3e, 0xa5, 0x12, 0xf9, 0xbd, 0x9a, 0xef, 0x96, 0xbd,
  0x5c, 0xf8, 0x7a, 0x3d, 0xc3, 0x45, 0x3c, 0x3e, 0x90, 0xa9, 0x94, 0xbd,
  0x1b, 0xbb, 0x96, 0x3d, 0xef, 0xc4, 0x7e, 0xbe, 0x8c, 0xdb, 0x46, 0xbe,
  0xff, 0x13, 0x4a, 0x3e, 0x1f, 0x71, 0x8f, 0xbd, 0x09, 0xf2, 0x3c, 0xbe,
  0xa1, 0xa5, 0x30, 0x3e, 0x22, 0x74, 0xf7, 0xbd, 0xf6, 0x0c, 0xe6, 0xb9,
  0x9a, 0xd3, 0xc8, 0x3d, 0x6a, 0x7f, 0x07, 0xbd, 0x7b, 0xb4, 0x24, 0xbd,
  0xbc, 0x5c, 0x5a, 0x3e, 0x1a, 0x7b, 0x3d, 0xbe, 0x1f, 0x8e, 0x74, 0xbe,
  0x45, 0xc5, 0xad, 0xbd, 0x56, 0xb4, 0x1d, 0xbe, 0xf8, 0x43, 0xd9, 0x3d,
  0x58, 0x47, 0x7d, 0xbe, 0x16, 0x61, 0x1f, 0x3e, 0xa0, 0xeb, 0xca, 0xbd,
  0xd1, 0xf2, 0x90, 0x3e, 0x9e, 0x82, 0x59, 0x3e, 0x97, 0x64, 0xff, 0xbd,
  0xc0, 0x61, 0x29, 0x3e, 0xeb, 0x21, 0xa7, 0x3e, 0xab, 0x8a, 0x6a, 0x3c,
  0x5c, 0x3a, 0x59, 0xbe, 0x64, 0x17, 0x33, 0xbe, 0x81, 0x90, 0xd0, 0xbd,
  0x76, 0xdf, 0x8e, 0x3d, 0x27, 0x58, 0x82, 0x3d, 0x7d, 0xf0, 0xf6, 0x3d,
  0x07, 0x30, 0x93, 0x3d, 0xd1, 0xaf, 0x44, 0xbe, 0xb8, 0x29, 0x17, 0x3e,
  0xe8, 0x7d, 0x71, 0x3e, 0xab, 0xa2, 0x55, 0xbd, 0x22, 0x8e, 0x44, 0xbd,
  0xaf, 0xb4, 0x5a, 0xbe, 0x7f, 0x1d, 0x6c, 0xbe, 0xed, 0x71, 0x41, 0x3b,
  0x63, 0x75, 0x9f, 0x3d, 0x5d, 0x43, 0x89, 0x3e, 0x47, 0xf1, 0x35, 0xbe,
  0x18, 0xd4, 0x49, 0xbe, 0x08, 0xd1, 0x15, 0x3e, 0x57, 0x44, 0xf0, 0xbd,
  0x36, 0xcb, 0x86, 0x3e, 0xb1, 0xa5, 0x53, 0x3d, 0xc5, 0xfd, 0xf8, 0x3d,
  0x82, 0x45, 0x87, 0x3d, 0xc2, 0xb8, 0x12, 0xbc, 0xce, 0x26, 0x08, 0x3e,
  0xca, 0xc5, 0x8d, 0xbb, 0xa0, 0xeb, 0x2a, 0xbe, 0xa4, 0xc5, 0x01, 0x3d,
  0xa6, 0x00, 0xac, 0xbd, 0x81, 0xb5, 0x7b, 0xbe, 0x29, 0x3c, 0xf6, 0x3c,
  0xb5, 0xb7, 0xed, 0xbd, 0x4a, 0x32, 0x1c, 0xbe, 0xc7, 0xc7, 0x3b, 0x3d,
  0xef, 0x7e, 0xed, 0xbc, 0x09, 0x26, 0x8c, 0xbd, 0xb3, 0xdc, 0x49, 0xbe,
  0x47, 0x6c, 0x5e, 0x3d, 0x69, 0xe6, 0x3b, 0xbe, 0x26, 0x2c, 0xb7, 0x3c,
  0xc8, 0xff, 0x3d, 0xbe, 0xe2, 0x9b, 0x08, 0xbe, 0xad, 0x25, 0x78, 0xbe,
  0x87, 0x54, 0x62, 0xbe, 0x30, 0x3b, 0x30, 0x3e, 0xd8, 0x26, 0x34, 0xbe,
  0x7b, 0xd7, 0x32, 0xbd, 0x72, 0x52, 0x1a, 0xbe, 0x27, 0x97, 0x14, 0xbe,
  0x11, 0xe2, 0x56, 0x3e, 0x04, 0x31, 0x5e, 0x3e, 0xbe, 0x8b, 0x0a, 0xbe,
  0xb1, 0x01, 0xfa, 0xbd, 0x08, 0xce, 0xaf, 0x3d, 0x04, 0x5d, 0x42, 0xbe,
  0x8a, 0x4e, 0xf6, 0x3d, 0x2d, 0xbc, 0x19, 0x3e, 0x74, 0xf1, 0x1c, 0xbe,
  0x33, 0x38, 0x21, 0x3e, 0xb1, 0x66, 0x1f, 0x3e, 0x69, 0xe1, 0x95, 0xbd,
  0x0a, 0xf5, 0x5e, 0x3d, 0xf9, 0xca, 0x56, 0x3e, 0x11, 0x14, 0x1a, 0xbe,
  0xd7, 0xa3, 0x83, 0xbe, 0xa5, 0xf6, 0x6b, 0xbe, 0x8d, 0xc7, 0xbb, 0x3d,
  0xb5, 0xa5, 0x85, 0xbe, 0x3f, 0x6f, 0xda, 0x3d, 0x4f, 0xd6, 0x69, 0xbe,
  0xf2, 0x17, 0x91, 0xbd, 0x64, 0x25, 0x68, 0xbe, 0x7f, 0xef, 0x54, 0x3e,
  0xd5, 0xd6, 0x46, 0x3d, 0x7d, 0x3f, 0x07, 0x3e, 0xb9, 0xf1, 0x2b, 0x3e,
  0x90, 0x40, 0x00, 0xbe, 0x63, 0x55, 0xab, 0x3d, 0xc7, 0xed, 0x6d, 0xbe,
  0x89, 0x5b, 0x36, 0x3e, 0x26, 0x8e, 0x3b, 0xbd, 0xc3, 0xd6, 0x33, 0x3e,
  0x86, 0x69, 0xe8, 0x3d, 0x9d, 0x6a, 0x82, 0xbe, 0xdd, 0x24, 0x57, 0xbe,
  0xe1, 0xa9, 0xae, 0x3d, 0x88, 0x0d, 0xa9, 0xbd, 0xe6, 0x49, 0x4f, 0x3e,
  0x26, 0xf9, 0x6c, 0x3d, 0x0f, 0x68, 0x67, 0xbe, 0x64, 0x08, 0xb2, 0xbc,
  0xc7, 0x6c, 0x71, 0x3e, 0xd7, 0x2a, 0x9f, 0xbe, 0x0c, 0xca, 0x1c, 0x3e,
  0x91, 0xf5, 0x39, 0x3e, 0xce, 0x0f, 0x85, 0x3e, 0x4d, 0x8e, 0x35, 0xbe,
  0x96, 0xe4, 0x2c, 0x3e, 0xac, 0xd0, 0xde, 0xbd, 0xdf, 0x8c, 0x94, 0xbe,
  0x80, 0x65, 0x3b, 0x3d, 0x66, 0xb0, 0xa2, 0x3d, 0x35, 0x22, 0xe3, 0x3d,
  0x0f, 0x46, 0x86, 0xbe, 0x3d, 0xc7, 0x3f, 0x3e, 0x76, 0x99, 0xde, 0xbd,
  0x54, 0xc6, 0x88, 0x3c, 0x94, 0x6c, 0xfd, 0x3d, 0xe3, 0xe5, 0xad, 0xbd,
  0x91, 0x94, 0xa2, 0x3d, 0xe5, 0x5f, 0x6d, 0x3e, 0xd8, 0x92, 0x49, 0x3e,
  0x00, 0x25, 0x05, 0xbd, 0x5d, 0x1f, 0x41, 0x3e, 0x08, 0x19, 0x74, 0x3d,
  0xae, 0xce, 0xfb, 0x3d, 0x13, 0x08, 0x45, 0xbe, 0xe5, 0xd6, 0x00, 0x3e,
  0x7c, 0xf7, 0x15, 0x3d, 0x8f, 0xd2, 0xa7, 0xbe, 0xb6, 0x4c, 0x1b, 0xbe,
  0x2b, 0xf6, 0x9a, 0x3d, 0xc5, 0x03, 0x94, 0xbe, 0x3f, 0x46, 0x4a, 0xbc,
  0x2f, 0x75, 0x09, 0x3d, 0x10, 0x18, 0x1e, 0x3e, 0xdf, 0x6a, 0xab, 0x3d,
  0xed, 0x12, 0x4c, 0x3d, 0x9f, 0xa4, 0xa6, 0xbc, 0x61, 0x4b, 0x38, 0x3e,
  0x06, 0x64, 0xeb, 0xbd, 0xc9, 0x04, 0x42, 0x3e, 0x8e, 0x3a, 0x72, 0xbe,
  0xb4, 0x43, 0x58, 0x3e, 0x96, 0x95, 0x06, 0xbe, 0xdc, 0xf6, 0x0c, 0x3e,
  0x6d, 0x9b, 0x81, 0xbd, 0xb6, 0x0b, 0x9b, 0x3d, 0xcb, 0xef, 0x20, 0x3e,
  0x42, 0xa1, 0xa4, 0x3c, 0x48, 0x70, 0x12, 0x3c, 0x38, 0xac, 0x90, 0x3e,
  0x41, 0x5e, 0x24, 0xbe, 0xe6, 0x87, 0xd4, 0xbb, 0xf6, 0xf2, 0x87, 0xbe,
  0x22, 0x0e, 0x56, 0xbe, 0xcb, 0xaf, 0x10, 0xbe, 0x00, 0xa0, 0x88, 0xbe,
  0x6f, 0xb4, 0x9d, 0x3d, 0x35, 0xe3, 0xaa, 0xbe, 0x50, 0x67, 0x06, 0xbe,
  0x0a, 0x0b, 0x05, 0xbb, 0x0d, 0x51, 0x6b, 0xbe, 0x99, 0xb4, 0x76, 0x3d,
  0x5d, 0x20, 0x63, 0xbe, 0x33, 0x9f, 0xd8, 0xbc, 0xbd, 0xe2, 0x3a, 0x3e,
  0x8a, 0x38, 0xec, 0x3d, 0x7f, 0xc6, 0x92, 0x3e, 0x71, 0xb0, 0x4e, 0xbe,
  0x37, 0x83, 0x40, 0xbe, 0x54, 0xba, 0x21, 0x3e, 0x1a, 0x34, 0x6a, 0xbc,
  0xf2, 0x24, 0x01, 0xbe, 0xd4, 0x1a, 0xad, 0xbd, 0x9a, 0xf0, 0x09, 0xbe,
  0xdd, 0xb4, 0x1b, 0xbe, 0x48, 0xb4, 0xd8, 0x3d, 0x07, 0xca, 0x13, 0xbe,
  0x89, 0x40, 0x30, 0xbd, 0x44, 0xdc, 0x08, 0xbe, 0xd0, 0x95, 0x76, 0x3e,
  0x4c, 0x3c, 0x30, 0xbe, 0x6d, 0xcf, 0x38, 0x3e, 0x09, 0x41, 0x90, 0xbe,
  0xbb, 0x60, 0xad, 0x3d, 0x29, 0xff, 0x0d, 0x3e, 0x3f, 0x22, 0x08, 0xbe,
  0x0d, 0x98, 0x4b, 0xbe, 0x8d, 0x66, 0x93, 0x3d, 0xed, 0xcc, 0x18, 0x3e,
  0x12, 0x7f, 0xf7, 0x3d, 0x4e, 0xaa, 0xe2, 0xbd, 0x49, 0x40, 0x22, 0xbe,
  0x8c, 0x54, 0x75, 0xbd, 0xfd, 0x55, 0x79, 0x3b, 0x61, 0x52, 0x16, 0x3d,
  0x8c, 0xf1, 0x0e, 0xbe, 0x59, 0xeb, 0x8f, 0xbd, 0x62, 0xad, 0xd0, 0x3d,
  0x72, 0x6b, 0xf6, 0x3d, 0x6f, 0x7d, 0x0b, 0xbe, 0x39, 0x33, 0x53, 0x3e,
  0xc4, 0x0c, 0x20, 0x3c, 0x65, 0x85, 0x20, 0x3e, 0x71, 0x99, 0x50, 0xbe,
  0x46, 0x69, 0x92, 0xbd, 0x1c, 0x62, 0xd9, 0xbd, 0x35, 0x7f, 0x1a, 0x3e,
  0x5d, 0x10, 0x2f, 0xbe, 0x42, 0xc6, 0x1b, 0xbe, 0x87, 0x59, 0x57, 0xbe,
  0xb3, 0xc8, 0x16, 0x3d, 0xf3, 0x6c, 0x38, 0xbe, 0x8b, 0x15, 0x50, 0xbe,
  0x50, 0x90, 0x38, 0xbe, 0xdb, 0xe3, 0x6c, 0xbd, 0xc2, 0x97, 0xe8, 0x3c,
  0x5f, 0x4c, 0x45, 0x3e, 0x58, 0x64, 0xf8, 0x3d, 0x8a, 0x4f, 0x51, 0x3e,
  0x00, 0x46, 0xb7, 0x3d, 0x2e, 0x88, 0x11, 0xbc, 0xf9, 0xb5, 0x43, 0xbe,
  0x7d, 0x01, 0xe3, 0xbd, 0x49, 0xf0, 0xfa, 0x3c, 0x0a, 0x00, 0x3b, 0x3e,
  0x39, 0xd0, 0x4d, 0x3e, 0x5b, 0xb7, 0x89, 0x3d, 0xab, 0x7d, 0xf7, 0x3b,
  0xb7, 0x3b, 0xb9, 0x3d, 0x5e, 0x3c, 0x0b, 0xbe, 0xf0, 0xc6, 0xcf, 0xbc,
  0xc7, 0xd6, 0x71, 0xbe, 0xd9, 0x2f, 0x17, 0x3e, 0xcc, 0x4a, 0x8e, 0xbe,
  0x03, 0xa5, 0x9e, 0x3e, 0xbc, 0x19, 0x8e, 0x3e, 0x9d, 0x19, 0x9f, 0xbe,
  0x01, 0x42, 0x7d, 0xbe, 0x21, 0x06, 0x83, 0xbe, 0x78, 0xb5, 0xf3, 0x3c,
  0xd5, 0x61, 0x95, 0x3d, 0xdd, 0xd8, 0x42, 0x3e, 0x0b, 0x4d, 0x8c, 0x3e,
  0x01, 0x51, 0x68, 0xbe, 0x5f, 0x7a, 0x79, 0x3e, 0x51, 0x3d, 0xd5, 0xbd,
  0x9f, 0x2d, 0xc5, 0xbd, 0x21, 0x61, 0x09, 0x3e, 0x50, 0x92, 0x36, 0xbe,
  0x4c, 0x84, 0xa2, 0xbe, 0xb8, 0xb5, 0xc0, 0x3d, 0x23, 0xc2, 0x5d, 0x3e,
  0xd2, 0xef, 0xdd, 0xbd, 0x7e, 0x3a, 0x32, 0x3e, 0x2b, 0xd2, 0xa4, 0xbb,
  0xe1, 0x8d, 0xe0, 0x3d, 0x48, 0xf8, 0x2e, 0x3e, 0x0f, 0x81, 0x33, 0x3e,
  0xdc, 0xdd, 0xed, 0x3c, 0x5a, 0xdf, 0x5b, 0xbe, 0xcd, 0x0a, 0x8f, 0xbe,
  0x9b, 0x5f, 0x40, 0x3e, 0x61, 0x27, 0xb4, 0xbc, 0x19, 0x36, 0x05, 0x3d,
  0xde, 0x68, 0xca, 0xbc, 0x2b, 0xc5, 0x67, 0xbe, 0xda, 0xe9, 0x5b, 0x3d,
  0xa9, 0x24, 0x33, 0xbe, 0x82, 0x55, 0x31, 0xbe, 0xf6, 0x7d, 0xed, 0x3d,
  0xbf, 0xd6, 0x5b, 0xbe, 0xef, 0xd2, 0xae, 0x3d, 0xd7, 0xc6, 0xf1, 0xbc,
  0x3a, 0xca, 0xd3, 0xbd, 0x98, 0xcb, 0xcd, 0xbd, 0x5d, 0x29, 0x6b, 0x3e,
  0x31, 0xf7, 0x19, 0x3e, 0x3a, 0x9c, 0xd3, 0xbc, 0x18, 0xf6, 0x47, 0x3c,
  0x2f, 0x88, 0x81, 0xbe, 0x5a, 0xe9, 0xc3, 0xbd, 0xef, 0x8f, 0x72, 0x3c,
  0xb2, 0xfe, 0x6d, 0xbe, 0xee, 0xb4, 0x76, 0xba, 0x36, 0xdd, 0x50, 0x3e,
  0xd6, 0x2b, 0x2b, 0x3d, 0x2f, 0xd1, 0x8b, 0xbd, 0x96, 0xed, 0x1a, 0xbd,
  0xfb, 0x0d, 0x90, 0xbc, 0x35, 0x36, 0xac, 0x3d, 0x22, 0xe0, 0x08, 0x3e,
  0x3c, 0xaf, 0x96, 0x3d, 0xa7, 0xd6, 0x40, 0x3e, 0xc8, 0x3a, 0xdb, 0xbd,
  0x10, 0xea, 0x7d, 0xbe, 0xeb, 0x01, 0x6b, 0xbc, 0x5c, 0xa9, 0x03, 0xbe,
  0x0c, 0xbd, 0x93, 0x3e, 0x4d, 0x73, 0x69, 0x3d, 0x1b, 0xd8, 0x01, 0xbe,
  0x87, 0x52, 0x16, 0xbc, 0x6e, 0x98, 0x2f, 0x3e, 0x20, 0xc6, 0xff, 0x3d,
  0xc4, 0x2b, 0x35, 0x3c, 0x88, 0xa9, 0x5c, 0xbe, 0x98, 0xd2, 0x4d, 0xbd,
  0x72, 0xce, 0x6e, 0x3d, 0x7a, 0xfc, 0xbe, 0xbe, 0x47, 0x22, 0xe7, 0xbd,
  0x20, 0xab, 0x38, 0xbe, 0xc2, 0x4f, 0x67, 0x3e, 0x2a, 0x44, 0x1e, 0xbe,
  0xc8, 0x38, 0x17, 0x3e, 0xdc, 0x97, 0xd7, 0x3d, 0xf7, 0x33, 0xfd, 0xbd,
  0x4b, 0x59, 0x81, 0xbd, 0x48, 0x43, 0xf1, 0xbd, 0xbe, 0x81, 0xae, 0x3d,
  0x71, 0x62, 0x5e, 0xbe, 0xbc, 0xbd, 0x94, 0x3d, 0x09, 0xa9, 0x4b, 0xbd,
  0xfd, 0x74, 0x78, 0xbe, 0xce, 0x7a, 0x3c, 0xbd, 0xe8, 0x37, 0x96, 0x3e,
  0x21, 0x30, 0x4c, 0xbe, 0x68, 0xd8, 0x57, 0x3e, 0x10, 0x77, 0xbd, 0x3d,
  0x8e, 0xe0, 0x23, 0xbe, 0x95, 0x97, 0x22, 0xbe, 0x1e, 0xd5, 0x0d, 0x3e,
  0x20, 0x29, 0x88, 0xbd, 0xdf, 0x6a, 0x4a, 0x3e, 0x85, 0x42, 0xa0, 0x3d,
  0x5d, 0xb7, 0x1e, 0x3e, 0xd1, 0x97, 0x4c, 0x3e, 0x7e, 0x5f, 0x83, 0x3e,
  0x44, 0xf9, 0x20, 0x3e, 0x24, 0x7b, 0x6b, 0x3e, 0x7f, 0x55, 0xe2, 0xbc,
  0x0e, 0x3e, 0x9a, 0x3e, 0xf8, 0x00, 0xd3, 0xbd, 0x8f, 0x32, 0x8d, 0x3e,
  0x7f, 0xc7, 0x0a, 0xbe, 0x19, 0x70, 0xa7, 0x3d, 0xd3, 0xf9, 0x11, 0x3e,
  0x0b, 0x2d, 0x5a, 0xbd, 0xae, 0xed, 0xc0, 0xbd, 0x4b, 0xfd, 0xf3, 0x3d,
  0x4f, 0x16, 0x56, 0x3e, 0xef, 0xb5, 0xf8, 0xbd, 0x17, 0x7f, 0xef, 0x3d,
  0x02, 0x39, 0xf5, 0x3d, 0xbe, 0xb7, 0x8a, 0x3e, 0xa9, 0xd9, 0xef, 0x3b,
  0x5a, 0x16, 0x0d, 0x3e, 0xb4, 0x77, 0x65, 0x3e, 0xd4, 0x26, 0xc7, 0xbd,
  0x67, 0xef, 0x20, 0xbd, 0xc5, 0xf2, 0x30, 0xbe, 0x65, 0x03, 0xef, 0xbd,
  0x8c, 0x38, 0x88, 0x3e, 0x62, 0xb7, 0x9b, 0xbd, 0x48, 0xeb, 0x82, 0xbc,
  0xed, 0x87, 0xb4, 0x3d, 0x86, 0xad, 0x15, 0x3d, 0xe2, 0x7d, 0x0f, 0x3e,
  0x31, 0xa8, 0x1d, 0x3e, 0x93, 0x8c, 0x91, 0x3d, 0x35, 0xd6, 0x50, 0xbd,
  0x06, 0xfd, 0xff, 0xff, 0x04, 0x00, 0x00, 0x00, 0x80, 0x01, 0x00, 0x00,
  0x0e, 0xb6, 0xd8, 0xbe, 0x0f, 0x7c, 0x94, 0xbd, 0xb9, 0x9c, 0x8f, 0xbe,
  0x47, 0x8c, 0x8a, 0xbe, 0x5e, 0xe4, 0xba, 0xbd, 0xf4, 0xf1, 0xa4, 0x3d,
  0x0e, 0xf3, 0x85, 0x3d, 0xfc, 0xb7, 0x9a, 0x3a, 0xc0, 0xec, 0xb5, 0x3e,
  0x01, 0x02, 0x9b, 0xbe, 0x5a, 0x42, 0x20, 0x3e, 0x66, 0xe9, 0x12, 0xbe,
  0x19, 0x8c, 0xb3, 0xbe, 0xae, 0x42, 0x9a, 0x3e, 0x3f, 0x49, 0xb7, 0x3e,
  0xcf, 0x52, 0x7a, 0x3e, 0x10, 0xe3, 0x4b, 0x3d, 0x63, 0x79, 0xa8, 0x3e,
  0x4b, 0xee, 0x32, 0x3e, 0x82, 0xd1, 0x89, 0xbe, 0x50, 0xf3, 0xed, 0x3d,
  0xe1, 0x6d, 0xb1, 0xbe, 0x2a, 0x06, 0x1f, 0x3e, 0x6d, 0x3f, 0x12, 0x3c,
  0xad, 0x77, 0x11, 0xbc, 0x6d, 0x7a, 0xcd, 0xbe, 0xc3, 0x51, 0x75, 0xbe,
  0x15, 0x4f, 0xcf, 0xbd, 0xff, 0x51, 0xbb, 0x3e, 0x4b, 0x32, 0x61, 0x3e,
  0x9f, 0xbc, 0xbe, 0xbe, 0xa3, 0xbb, 0xa5, 0x3e, 0x7b, 0xfe, 0x76, 0x3e,
  0x35, 0x7a, 0xd9, 0x3d, 0x5d, 0x27, 0x47, 0xbe, 0x4a, 0x62, 0x56, 0x3e,
  0x43, 0x93, 0x5f, 0x3e, 0x86, 0x73, 0x08, 0x3e, 0x2a, 0x6d, 0xc1, 0xbe,
  0x44, 0xde, 0xe1, 0xbd, 0x3a, 0xa1, 0x58, 0xbe, 0x6e, 0xb8, 0x1a, 0xbe,
  0x48, 0x39, 0xec, 0x3d, 0x7b, 0x63, 0x6c, 0xbe, 0x71, 0x93, 0xa8, 0xbc,
  0x53, 0xfe, 0x96, 0x3e, 0x44, 0xf0, 0xac, 0x3b, 0x0d, 0xcd, 0x43, 0x3e,
  0x41, 0x5a, 0x36, 0x3e, 0x74, 0xab, 0xba, 0x3e, 0xa7, 0xc5, 0xb1, 0x3e,
  0xf2, 0x00, 0xb6, 0xbe, 0x65, 0xbf, 0xc0, 0xbe, 0xe2, 0xc4, 0x1d, 0xbe,
  0xb4, 0x0c, 0x15, 0x3c, 0x10, 0x85, 0xb9, 0xbe, 0x1a, 0x49, 0x10, 0xbe,
  0x4c, 0x29, 0x24, 0x3e, 0x55, 0x2a, 0x82, 0x3e, 0x0e, 0x63, 0xce, 0xbe,
  0x85, 0xf0, 0xdf, 0x3c, 0xf8, 0xfa, 0xa7, 0xbe, 0xed, 0x07, 0xbf, 0x3e,
  0x3a, 0x72, 0x73, 0xbe, 0xef, 0x7d, 0x3d, 0x3e, 0x35, 0x4e, 0xda, 0x3d,
  0x7a, 0xd5, 0x83, 0x3d, 0xcc, 0xe8, 0xd5, 0xbd, 0xd3, 0xbf, 0x90, 0xbe,
  0xb4, 0xbb, 0x84, 0xbe, 0xd9, 0x23, 0x1c, 0x3e, 0x0b, 0x14, 0x9a, 0x3e,
  0x6e, 0x98, 0x8a, 0xbe, 0xe0, 0xfc, 0x9d, 0xbe, 0x16, 0xe1, 0x08, 0xbe,
  0xe4, 0x90, 0xd8, 0xbd, 0xb8, 0x24, 0x24, 0xbe, 0x3f, 0xc2, 0x0c, 0x3d,
  0xc3, 0xac, 0x35, 0xbe, 0xcb, 0x07, 0x39, 0x3c, 0xf8, 0x07, 0x4e, 0xbd,
  0x16, 0xc8, 0x2a, 0xbe, 0x33, 0xea, 0x64, 0xbe, 0x0b, 0xfa, 0xb6, 0x3e,
  0x1e, 0xa3, 0xb7, 0x3e, 0xd1, 0x32, 0x0d, 0x3e, 0x4b, 0x78, 0x2f, 0x3e,
  0x06, 0x2e, 0xa8, 0x3e, 0xb9, 0x66, 0xb1, 0xbd, 0x50, 0xe6, 0x9c, 0x3e,
  0x2f, 0x51, 0xb0, 0xbe, 0x86, 0x73, 0xa5, 0x3e, 0x7e, 0x3a, 0x94, 0x3e,
  0x01, 0x34, 0x44, 0x3e, 0x9b, 0x06, 0xb2, 0x3e, 0xad, 0x41, 0x49, 0x3e,
  0x92, 0xfe, 0xff, 0xff, 0x04, 0x00, 0x00, 0x00, 0x80, 0x00, 0x00, 0x00,
  0x99, 0x55, 0x92, 0x3c, 0x6e, 0x6f, 0x86, 0x3c, 0x35, 0x95, 0x82, 0xbc,
  0x31, 0x13, 0x5b, 0xbc, 0xc5, 0x39, 0x00, 0xbc, 0x00, 0x00, 0x00, 0x00,
  0x85, 0x9d, 0xce, 0x3c, 0xc8, 0xdf, 0x10, 0x3d, 0x0b, 0xa1, 0x51, 0x3c,
  0x37, 0xdf, 0x99, 0xbc, 0x4a, 0xa5, 0x9e, 0xbc, 0x80, 0x42, 0xaa, 0x3c,
  0x40, 0x4c, 0x7e, 0xbc, 0x06, 0xd2, 0x09, 0x3b, 0x6e, 0x3c, 0x41, 0x3a,
  0x21, 0x0b, 0xda, 0x39, 0xef, 0xda, 0xd4, 0xbc, 0x7c, 0x79, 0xbe, 0xbc,
  0x31, 0xd9, 0x00, 0xbd, 0x00, 0x00, 0x00, 0x00, 0x97, 0x30, 0x3b, 0x3d,
  0x46, 0x11, 0xb9, 0x3b, 0xfd, 0x6e, 0xcd, 0x3c, 0x0f, 0x95, 0x88, 0x3d,
  0x41, 0xbc, 0x79, 0xb9, 0x2c, 0x81, 0xb6, 0xbb, 0xdf, 0x2e, 0x84, 0xbb,
  0x56, 0xf8, 0xe3, 0x3c, 0x7a, 0x87, 0x80, 0x3c, 0xb9, 0x83, 0x8f, 0x3c,
  0x24, 0xbf, 0x0e, 0xbc, 0xf8, 0xd3, 0x82, 0xbc, 0x1e, 0xff, 0xff, 0xff,
  0x04, 0x00, 0x00, 0x00, 0x0c, 0x00, 0x00, 0x00, 0x87, 0x35, 0x06, 0x3c,
  0x5b, 0x88, 0x92, 0xbc, 0x66, 0x93, 0xd5, 0x3c, 0x36, 0xff, 0xff, 0xff,
  0x04, 0x00, 0x00, 0x00, 0x04, 0x00, 0x00, 0x00, 0x01, 0x00, 0x00, 0x00,
  0x46, 0xff, 0xff, 0xff, 0x04, 0x00, 0x00, 0x00, 0x04, 0x00, 0x00, 0x00,
  0xfd, 0xff, 0xff, 0xff, 0x1c, 0xee, 0xff, 0xff, 0x20, 0xee, 0xff, 0xff,
  0x0f, 0x00, 0x00, 0x00, 0x4d, 0x4c, 0x49, 0x52, 0x20, 0x43, 0x6f, 0x6e,
  0x76, 0x65, 0x72, 0x74, 0x65, 0x64, 0x2e, 0x00, 0x01, 0x00, 0x00, 0x00,
  0x14, 0x00, 0x00, 0x00, 0x00, 0x00, 0x0e, 0x00, 0x18, 0x00, 0x14, 0x00,
  0x10, 0x00, 0x0c, 0x00, 0x08, 0x00, 0x04, 0x00, 0x0e, 0x00, 0x00, 0x00,
  0x14, 0x00, 0x00, 0x00, 0x1c, 0x00, 0x00, 0x00, 0x30, 0x03, 0x00, 0x00,
  0x34, 0x03, 0x00, 0x00, 0x38, 0x03, 0x00, 0x00, 0x04, 0x00, 0x00, 0x00,
  0x6d, 0x61, 0x69, 0x6e, 0x00, 0x00, 0x00, 0x00, 0x0d, 0x00, 0x00, 0x00,
  0xe8, 0x02, 0x00, 0x00, 0x84, 0x02, 0x00, 0x00, 0x4c, 0x02, 0x00, 0x00,
  0x10, 0x02, 0x00, 0x00, 0xbc, 0x01, 0x00, 0x00, 0x94, 0x01, 0x00, 0x00,
  0x64, 0x01, 0x00, 0x00, 0x1c, 0x01, 0x00, 0x00, 0xf4, 0x00, 0x00, 0x00,
  0xc0, 0x00, 0x00, 0x00, 0x78, 0x00, 0x00, 0x00, 0x40, 0x00, 0x00, 0x00,
  0x04, 0x00, 0x00, 0x00, 0xba, 0xfd, 0xff, 0xff, 0x1c, 0x00, 0x00, 0x00,
  0x00, 0x00, 0x00, 0x09, 0x1c, 0x00, 0x00, 0x00, 0x20, 0x00, 0x00, 0x00,
  0x06, 0x00, 0x00, 0x00, 0x00, 0x00, 0x06, 0x00, 0x08, 0x00, 0x04, 0x00,
  0x06, 0x00, 0x00, 0x00, 0x00, 0x00, 0x80, 0x3f, 0x01, 0x00, 0x00, 0x00,
  0x1a, 0x00, 0x00, 0x00, 0x01, 0x00, 0x00, 0x00, 0x19, 0x00, 0x00, 0x00,
  0xf2, 0xfd, 0xff, 0xff, 0x14, 0x00, 0x00, 0x00, 0x00, 0x00, 0x00, 0x08,
  0x10, 0x00, 0x00, 0x00, 0x14, 0x00, 0x00, 0x00, 0x05, 0x00, 0x00, 0x00,
  0xfc, 0xee, 0xff, 0xff, 0x01, 0x00, 0x00, 0x00, 0x19, 0x00, 0x00, 0x00,
  0x03, 0x00, 0x00, 0x00, 0x18, 0x00, 0x00, 0x00, 0x05, 0x00, 0x00, 0x00,
  0x03, 0x00, 0x00, 0x00, 0x26, 0xfe, 0xff, 0xff, 0x20, 0x00, 0x00, 0x00,
  0x00, 0x00, 0x00, 0x08, 0x20, 0x00, 0x00, 0x00, 0x24, 0x00, 0x00, 0x00,
  0x05, 0x00, 0x00, 0x00, 0x0c, 0x00, 0x08, 0x00, 0x07, 0x00, 0x00, 0x00,
  0x00, 0x00, 0x06, 0x00, 0x0c, 0x00, 0x00, 0x00, 0x00, 0x00, 0x01, 0x01,
  0x01, 0x00, 0x00, 0x00, 0x18, 0x00, 0x00, 0x00, 0x03, 0x00, 0x00, 0x00,
  0x17, 0x00, 0x00, 0x00, 0x0d, 0x00, 0x00, 0x00, 0x04, 0x00, 0x00, 0x00,
  0x6a, 0xfe, 0xff, 0xff, 0x14, 0x00, 0x00, 0x00, 0x00, 0x00, 0x00, 0x1b,
  0x10, 0x00, 0x00, 0x00, 0x14, 0x00, 0x00, 0x00, 0x04, 0x00, 0x00, 0x00,
  0x74, 0xef, 0xff, 0xff, 0x01, 0x00, 0x00, 0x00, 0x17, 0x00, 0x00, 0x00,
  0x02, 0x00, 0x00, 0x00, 0x16, 0x00, 0x00, 0x00, 0x02, 0x00, 0x00, 0x00,
  0xca, 0xfe, 0xff, 0xff, 0x0c, 0x00, 0x00, 0x00, 0x10, 0x00, 0x00, 0x00,
  0x02, 0x00, 0x00, 0x00, 0x01, 0x00, 0x00, 0x00, 0x16, 0x00, 0x00, 0x00,
  0x02, 0x00, 0x00, 0x00, 0x15, 0x00, 0x00, 0x00, 0x09, 0x00, 0x00, 0x00,
  0xbe, 0xfe, 0xff, 0xff, 0x14, 0x00, 0x00, 0x00, 0x00, 0x00, 0x00, 0x01,
  0x20, 0x00, 0x00, 0x00, 0x24, 0x00, 0x00, 0x00, 0x01, 0x00, 0x00, 0x00,
  0xb0, 0xfe, 0xff, 0xff, 0x00, 0x00, 0x00, 0x01, 0x01, 0x00, 0x00, 0x00,
  0x01, 0x00, 0x00, 0x00, 0x00, 0x00, 0x00, 0x01, 0x01, 0x00, 0x00, 0x00,
  0x15, 0x00, 0x00, 0x00, 0x03, 0x00, 0x00, 0x00, 0x14, 0x00, 0x00, 0x00,
  0x0c, 0x00, 0x00, 0x00, 0x07, 0x00, 0x00, 0x00, 0xa2, 0xfe, 0xff, 0xff,
  0x10, 0x00, 0x00, 0x00, 0x00, 0x00, 0x00, 0x34, 0x0c, 0x00, 0x00, 0x00,
  0x10, 0x00, 0x00, 0x00, 0x08, 0xf0, 0xff, 0xff, 0x01, 0x00, 0x00, 0x00,
  0x14, 0x00, 0x00, 0x00, 0x02, 0x00, 0x00, 0x00, 0x13, 0x00, 0x00, 0x00,
  0x01, 0x00, 0x00, 0x00, 0x5e, 0xff, 0xff, 0xff, 0x0c, 0x00, 0x00, 0x00,
  0x10, 0x00, 0x00, 0x00, 0x02, 0x00, 0x00, 0x00, 0x01, 0x00, 0x00, 0x00,
  0x13, 0x00, 0x00, 0x00, 0x02, 0x00, 0x00, 0x00, 0x12, 0x00, 0x00, 0x00,
  0x0a, 0x00, 0x00, 0x00, 0x52, 0xff, 0xff, 0xff, 0x24, 0x00, 0x00, 0x00,
  0x00, 0x00, 0x00, 0x05, 0x34, 0x00, 0x00, 0x00, 0x38, 0x00, 0x00, 0x00,
  0x03, 0x00, 0x00, 0x00, 0x00, 0x00, 0x0e, 0x00, 0x18, 0x00, 0x17, 0x00,
  0x10, 0x00, 0x0c, 0x00, 0x08, 0x00, 0x04, 0x00, 0x0e, 0x00, 0x00, 0x00,
  0x01, 0x00, 0x00, 0x00, 0x02, 0x00, 0x00, 0x00, 0x01, 0x00, 0x00, 0x00,
  0x02, 0x00, 0x00, 0x00, 0x00, 0x00, 0x00, 0x01, 0x01, 0x00, 0x00, 0x00,
  0x12, 0x00, 0x00, 0x00, 0x01, 0x00, 0x00, 0x00, 0x11, 0x00, 0x00, 0x00,
  0x42, 0xff, 0xff, 0xff, 0x10, 0x00, 0x00, 0x00, 0x00, 0x00, 0x00, 0x34,
  0x0c, 0x00, 0x00, 0x00, 0x10, 0x00, 0x00, 0x00, 0xa8, 0xf0, 0xff, 0xff,
  0x01, 0x00, 0x00, 0x00, 0x11, 0x00, 0x00, 0x00, 0x02, 0x00, 0x00, 0x00,
  0x10, 0x00, 0x00, 0x00, 0x02, 0x00, 0x00, 0x00, 0x00, 0x00, 0x0a, 0x00,
  0x10, 0x00, 0x0c, 0x00, 0x08, 0x00, 0x04, 0x00, 0x0a, 0x00, 0x00, 0x00,
  0x0c, 0x00, 0x00, 0x00, 0x10, 0x00, 0x00, 0x00, 0x02, 0x00, 0x00, 0x00,
  0x01, 0x00, 0x00, 0x00, 0x10, 0x00, 0x00, 0x00, 0x02, 0x00, 0x00, 0x00,
  0x0f, 0x00, 0x00, 0x00, 0x0b, 0x00, 0x00, 0x00, 0x00, 0x00, 0x0e, 0x00,
  0x18, 0x00, 0x14, 0x00, 0x10, 0x00, 0x0c, 0x00, 0x0b, 0x00, 0x04, 0x00,
  0x0e, 0x00, 0x00, 0x00, 0x20, 0x00, 0x00, 0x00, 0x00, 0x00, 0x00, 0x01,
  0x2c, 0x00, 0x00, 0x00, 0x30, 0x00, 0x00, 0x00, 0x01, 0x00, 0x00, 0x00,
  0x0c, 0x00, 0x14, 0x00, 0x13, 0x00, 0x0c, 0x00, 0x08, 0x00, 0x07, 0x00,
  0x0c, 0x00, 0x00, 0x00, 0x00, 0x00, 0x00, 0x01, 0x01, 0x00, 0x00, 0x00,
  0x01, 0x00, 0x00, 0x00, 0x00, 0x00, 0x00, 0x01, 0x01, 0x00, 0x00, 0x00,
  0x0f, 0x00, 0x00, 0x00, 0x03, 0x00, 0x00, 0x00, 0x0e, 0x00, 0x00, 0x00,
  0x06, 0x00, 0x00, 0x00, 0x08, 0x00, 0x00, 0x00, 0x00, 0x00, 0x0e, 0x00,
  0x14, 0x00, 0x00, 0x00, 0x10, 0x00, 0x0c, 0x00, 0x0b, 0x00, 0x04, 0x00,
  0x0e, 0x00, 0x00, 0x00, 0x10, 0x00, 0x00, 0x00, 0x00, 0x00, 0x00, 0x34,
  0x0c, 0x00, 0x00, 0x00, 0x10, 0x00, 0x00, 0x00, 0x74, 0xf1, 0xff, 0xff,
  0x01, 0x00, 0x00, 0x00, 0x0e, 0x00, 0x00, 0x00, 0x02, 0x00, 0x00, 0x00,
  0x00, 0x00, 0x00, 0x00, 0x01, 0x00, 0x00, 0x00, 0x01, 0x00, 0x00, 0x00,
  0x1a, 0x00, 0x00, 0x00, 0x01, 0x00, 0x00, 0x00, 0x00, 0x00, 0x00, 0x00,
  0x1b, 0x00, 0x00, 0x00, 0x34, 0x0e, 0x00, 0x00, 0xe0, 0x0d, 0x00, 0x00,
  0x8c, 0x0d, 0x00, 0x00, 0x50, 0x0d, 0x00, 0x00, 0xfc, 0x0c, 0x00, 0x00,
  0xbc, 0x0c, 0x00, 0x00, 0x74, 0x0c, 0x00, 0x00, 0x38, 0x0c, 0x00, 0x00,
  0xfc, 0x0b, 0x00, 0x00, 0xbc, 0x0b, 0x00, 0x00, 0x7c, 0x0b, 0x00, 0x00,
  0x38, 0x0b, 0x00, 0x00, 0x48, 0x09, 0x00, 0x00, 0x70, 0x07, 0x00, 0x00,
  0xf0, 0x06, 0x00, 0x00, 0x18, 0x06, 0x00, 0x00, 0x6c, 0x05, 0x00, 0x00,
  0xe8, 0x04, 0x00, 0x00, 0x70, 0x04, 0x00, 0x00, 0xf8, 0x03, 0x00, 0x00,
  0x78, 0x03, 0x00, 0x00, 0x98, 0x02, 0x00, 0x00, 0xe4, 0x01, 0x00, 0x00,
  0x74, 0x01, 0x00, 0x00, 0xe0, 0x00, 0x00, 0x00, 0x60, 0x00, 0x00, 0x00,
  0x04, 0x00, 0x00, 0x00, 0x4e, 0xf2, 0xff, 0xff, 0x00, 0x00, 0x00, 0x01,
  0x14, 0x00, 0x00, 0x00, 0x1c, 0x00, 0x00, 0x00, 0x1c, 0x00, 0x00, 0x00,
  0x1b, 0x00, 0x00, 0x00, 0x34, 0x00, 0x00, 0x00, 0x02, 0x00, 0x00, 0x00,
  0xff, 0xff, 0xff, 0xff, 0x03, 0x00, 0x00, 0x00, 0x34, 0xf2, 0xff, 0xff,
  0x1b, 0x00, 0x00, 0x00, 0x53, 0x74, 0x61, 0x74, 0x65, 0x66, 0x75, 0x6c,
  0x50, 0x61, 0x72, 0x74, 0x69, 0x74, 0x69, 0x6f, 0x6e, 0x65, 0x64, 0x43,
  0x61, 0x6c, 0x6c, 0x5f, 0x31, 0x3a, 0x30, 0x00, 0x02, 0x00, 0x00, 0x00,
  0x01, 0x00, 0x00, 0x00, 0x03, 0x00, 0x00, 0x00, 0xa6, 0xf2, 0xff, 0xff,
  0x00, 0x00, 0x00, 0x01, 0x14, 0x00, 0x00, 0x00, 0x1c, 0x00, 0x00, 0x00,
  0x1c, 0x00, 0x00, 0x00, 0x1a, 0x00, 0x00, 0x00, 0x58, 0x00, 0x00, 0x00,
  0x02, 0x00, 0x00, 0x00, 0xff, 0xff, 0xff, 0xff, 0x03, 0x00, 0x00, 0x00,
  0x8c, 0xf2, 0xff, 0xff, 0x3c, 0x00, 0x00, 0x00, 0x73, 0x65, 0x71, 0x75,
  0x65, 0x6e, 0x74, 0x69, 0x61, 0x6c, 0x5f, 0x31, 0x2f, 0x64, 0x65, 0x6e,
  0x73, 0x65, 0x5f, 0x31, 0x5f, 0x32, 0x2f, 0x4d, 0x61, 0x74, 0x4d, 0x75,
  0x6c, 0x3b, 0x73, 0x65, 0x71, 0x75, 0x65, 0x6e, 0x74, 0x69, 0x61, 0x6c,
  0x5f, 0x31, 0x2f, 0x64, 0x65, 0x6e, 0x73, 0x65, 0x5f, 0x31, 0x5f, 0x32,
  0x2f, 0x42, 0x69, 0x61, 0x73, 0x41, 0x64, 0x64, 0x00, 0x00, 0x00, 0x00,
  0x02, 0x00, 0x00, 0x00, 0x01, 0x00, 0x00, 0x00, 0x03, 0x00, 0x00, 0x00,
  0x22, 0xf3, 0xff, 0xff, 0x00, 0x00, 0x00, 0x01, 0x14, 0x00, 0x00, 0x00,
  0x1c, 0x00, 0x00, 0x00, 0x1c, 0x00, 0x00, 0x00, 0x19, 0x00, 0x00, 0x00,
  0x6c, 0x00, 0x00, 0x00, 0x02, 0x00, 0x00, 0x00, 0xff, 0xff, 0xff, 0xff,
  0x20, 0x00, 0x00, 0x00, 0x08, 0xf3, 0xff, 0xff, 0x52, 0x00, 0x00, 0x00,
  0x73, 0x65, 0x71, 0x75, 0x65, 0x6e, 0x74, 0x69, 0x61, 0x6c, 0x5f, 0x31,
  0x2f, 0x64, 0x65, 0x6e, 0x73, 0x65, 0x5f, 0x31, 0x2f, 0x4d, 0x61, 0x74,
  0x4d, 0x75, 0x6c, 0x3b, 0x73, 0x65, 0x71, 0x75, 0x65, 0x6e, 0x74, 0x69,
  0x61, 0x6c, 0x5f, 0x31, 0x2f, 0x64, 0x65, 0x6e, 0x73, 0x65, 0x5f, 0x31,
  0x2f, 0x52, 0x65, 0x6c, 0x75, 0x3b, 0x73, 0x65, 0x71, 0x75, 0x65, 0x6e,
  0x74, 0x69, 0x61, 0x6c, 0x5f, 0x31, 0x2f, 0x64, 0x65, 0x6e, 0x73, 0x65,
  0x5f, 0x31, 0x2f, 0x42, 0x69, 0x61, 0x73, 0x41, 0x64, 0x64, 0x00, 0x00,
  0x02, 0x00, 0x00, 0x00, 0x01, 0x00, 0x00, 0x00, 0x20, 0x00, 0x00, 0x00,
  0xb2, 0xf3, 0xff, 0xff, 0x00, 0x00, 0x00, 0x01, 0x14, 0x00, 0x00, 0x00,
  0x1c, 0x00, 0x00, 0x00, 0x1c, 0x00, 0x00, 0x00, 0x18, 0x00, 0x00, 0x00,
  0x48, 0x00, 0x00, 0x00, 0x02, 0x00, 0x00, 0x00, 0xff, 0xff, 0xff, 0xff,
  0x20, 0x00, 0x00, 0x00, 0x98, 0xf3, 0xff, 0xff, 0x2c, 0x00, 0x00, 0x00,
  0x73, 0x65, 0x71, 0x75, 0x65, 0x6e, 0x74, 0x69, 0x61, 0x6c, 0x5f, 0x31,
  0x2f, 0x67, 0x6c, 0x6f, 0x62, 0x61, 0x6c, 0x5f, 0x61, 0x76, 0x65, 0x72,
  0x61, 0x67, 0x65, 0x5f, 0x70, 0x6f, 0x6f, 0x6c, 0x69, 0x6e, 0x67, 0x31,
  0x64, 0x5f, 0x31, 0x2f, 0x4d, 0x65, 0x61, 0x6e, 0x00, 0x00, 0x00, 0x00,
  0x02, 0x00, 0x00, 0x00, 0x01, 0x00, 0x00, 0x00, 0x20, 0x00, 0x00, 0x00,
  0x1e, 0xf4, 0xff, 0xff, 0x00, 0x00, 0x00, 0x01, 0x14, 0x00, 0x00, 0x00,
  0x20, 0x00, 0x00, 0x00, 0x20, 0x00, 0x00, 0x00, 0x17, 0x00, 0x00, 0x00,
  0x88, 0x00, 0x00, 0x00, 0x03, 0x00, 0x00, 0x00, 0xff, 0xff, 0xff, 0xff,
  0x2f, 0x00, 0x00, 0x00, 0x20, 0x00, 0x00, 0x00, 0x08, 0xf4, 0xff, 0xff,
  0x69, 0x00, 0x00, 0x00, 0x73, 0x65, 0x71, 0x75, 0x65, 0x6e, 0x74, 0x69,
  0x61, 0x6c, 0x5f, 0x31, 0x2f, 0x63, 0x6f, 0x6e, 0x76, 0x31, 0x64, 0x5f,
  0x31, 0x5f, 0x32, 0x2f, 0x52, 0x65, 0x6c, 0x75, 0x3b, 0x73, 0x65, 0x71,
  0x75, 0x65, 0x6e, 0x74, 0x69, 0x61, 0x6c, 0x5f, 0x31, 0x2f, 0x63, 0x6f,
  0x6e, 0x76, 0x31, 0x64, 0x5f, 0x31, 0x5f, 0x32, 0x2f, 0x42, 0x69, 0x61,
  0x73, 0x41, 0x64, 0x64, 0x3b, 0x73, 0x65, 0x71, 0x75, 0x65, 0x6e, 0x74,
  0x69, 0x61, 0x6c, 0x5f, 0x31, 0x2f, 0x63, 0x6f, 0x6e, 0x76, 0x31, 0x64,
  0x5f, 0x31, 0x5f, 0x32, 0x2f, 0x63, 0x6f, 0x6e, 0x76, 0x6f, 0x6c, 0x75,
  0x74, 0x69, 0x6f, 0x6e, 0x2f, 0x53, 0x71, 0x75, 0x65, 0x65, 0x7a, 0x65,
  0x3b, 0x00, 0x00, 0x00, 0x03, 0x00, 0x00, 0x00, 0x01, 0x00, 0x00, 0x00,
  0x2f, 0x00, 0x00, 0x00, 0x20, 0x00, 0x00, 0x00, 0xce, 0xf4, 0xff, 0xff,
  0x00, 0x00, 0x00, 0x01, 0x14, 0x00, 0x00, 0x00, 0x24, 0x00, 0x00, 0x00,
  0x24, 0x00, 0x00, 0x00, 0x16, 0x00, 0x00, 0x00, 0xb0, 0x00, 0x00, 0x00,
  0x04, 0x00, 0x00, 0x00, 0xff, 0xff, 0xff, 0xff, 0x01, 0x00, 0x00, 0x00,
  0x2f, 0x00, 0x00, 0x00, 0x20, 0x00, 0x00, 0x00, 0xbc, 0xf4, 0xff, 0xff,
  0x8d, 0x00, 0x00, 0x00, 0x73, 0x65, 0x71, 0x75, 0x65, 0x6e, 0x74, 0x69,
  0x61, 0x6c, 0x5f, 0x31, 0x2f, 0x63, 0x6f, 0x6e, 0x76, 0x31, 0x64, 0x5f,
  0x31, 0x5f, 0x32, 0x2f, 0x52, 0x65, 0x6c, 0x75, 0x3b, 0x73, 0x65, 0x71,
  0x75, 0x65, 0x6e, 0x74, 0x69, 0x61, 0x6c, 0x5f, 0x31, 0x2f, 0x63, 0x6f,
  0x6e, 0x76, 0x31, 0x64, 0x5f, 0x31, 0x5f, 0x32, 0x2f, 0x42, 0x69, 0x61,
  0x73, 0x41, 0x64, 0x64, 0x3b, 0x73, 0x65, 0x71, 0x75, 0x65, 0x6e, 0x74,
  0x69, 0x61, 0x6c, 0x5f, 0x31, 0x2f, 0x63, 0x6f, 0x6e, 0x76, 0x31, 0x64,
  0x5f, 0x31, 0x5f, 0x32, 0x2f, 0x63, 0x6f, 0x6e, 0x76, 0x6f, 0x6c, 0x75,
  0x74, 0x69, 0x6f, 0x6e, 0x2f, 0x53, 0x71, 0x75, 0x65, 0x65, 0x7a, 0x65,
  0x3b, 0x3b, 0x73, 0x65, 0x71, 0x75, 0x65, 0x6e, 0x74, 0x69, 0x61, 0x6c,
  0x5f, 0x31, 0x2f, 0x63, 0x6f, 0x6e, 0x76, 0x31, 0x64, 0x5f, 0x31, 0x5f,
  0x32, 0x2f, 0x63, 0x6f, 0x6e, 0x76, 0x6f, 0x6c, 0x75, 0x74, 0x69, 0x6f,
  0x6e, 0x00, 0x00, 0x00, 0x04, 0x00, 0x00, 0x00, 0x01, 0x00, 0x00, 0x00,
  0x01, 0x00, 0x00, 0x00, 0x2f, 0x00, 0x00, 0x00, 0x20, 0x00, 0x00, 0x00,
  0xaa, 0xf5, 0xff, 0xff, 0x00, 0x00, 0x00, 0x01, 0x14, 0x00, 0x00, 0x00,
  0x24, 0x00, 0x00, 0x00, 0x24, 0x00, 0x00, 0x00, 0x15, 0x00, 0x00, 0x00,
  0x50, 0x00, 0x00, 0x00, 0x04, 0x00, 0x00, 0x00, 0xff, 0xff, 0xff, 0xff,
  0x01, 0x00, 0x00, 0x00, 0x31, 0x00, 0x00, 0x00, 0x10, 0x00, 0x00, 0x00,
  0x98, 0xf5, 0xff, 0xff, 0x2e, 0x00, 0x00, 0x00, 0x73, 0x65, 0x71, 0x75,
  0x65, 0x6e, 0x74, 0x69, 0x61, 0x6c, 0x5f, 0x31, 0x2f, 0x63, 0x6f, 0x6e,
  0x76, 0x31, 0x64, 0x5f, 0x31, 0x5f, 0x32, 0x2f, 0x63, 0x6f, 0x6e, 0x76,
  0x6f, 0x6c, 0x75, 0x74, 0x69, 0x6f, 0x6e, 0x2f, 0x45, 0x78, 0x70, 0x61,
  0x6e, 0x64, 0x44, 0x69, 0x6d, 0x73, 0x00, 0x00, 0x04, 0x00, 0x00, 0x00,
  0x01, 0x00, 0x00, 0x00, 0x01, 0x00, 0x00, 0x00, 0x31, 0x00, 0x00, 0x00,
  0x10, 0x00, 0x00, 0x00, 0x26, 0xf6, 0xff, 0xff, 0x00, 0x00, 0x00, 0x01,
  0x14, 0x00, 0x00, 0x00, 0x20, 0x00, 0x00, 0x00, 0x20, 0x00, 0x00, 0x00,
  0x14, 0x00, 0x00, 0x00, 0x4c, 0x00, 0x00, 0x00, 0x03, 0x00, 0x00, 0x00,
  0xff, 0xff, 0xff, 0xff, 0x31, 0x00, 0x00, 0x00, 0x10, 0x00, 0x00, 0x00,
  0x10, 0xf6, 0xff, 0xff, 0x2e, 0x00, 0x00, 0x00, 0x73, 0x65, 0x71, 0x75,
  0x65, 0x6e, 0x74, 0x69, 0x61, 0x6c, 0x5f, 0x31, 0x2f, 0x6d, 0x61, 0x78,
  0x5f, 0x70, 0x6f, 0x6f, 0x6c, 0x69, 0x6e, 0x67, 0x31, 0x64, 0x5f, 0x31,
  0x2f, 0x4d, 0x61, 0x78, 0x50, 0x6f, 0x6f, 0x6c, 0x31, 0x64, 0x2f, 0x53,
  0x71, 0x75, 0x65, 0x65, 0x7a, 0x65, 0x00, 0x00, 0x03, 0x00, 0x00, 0x00,
  0x01, 0x00, 0x00, 0x00, 0x31, 0x00, 0x00, 0x00, 0x10, 0x00, 0x00, 0x00,
  0x9a, 0xf6, 0xff, 0xff, 0x00, 0x00, 0x00, 0x01, 0x14, 0x00, 0x00, 0x00,
  0x24, 0x00, 0x00, 0x00, 0x24, 0x00, 0x00, 0x00, 0x13, 0x00, 0x00, 0x00,
  0x48, 0x00, 0x00, 0x00, 0x04, 0x00, 0x00, 0x00, 0xff, 0xff, 0xff, 0xff,
  0x01, 0x00, 0x00, 0x00, 0x31, 0x00, 0x00, 0x00, 0x10, 0x00, 0x00, 0x00,
  0x88, 0xf6, 0xff, 0xff, 0x26, 0x00, 0x00, 0x00, 0x73, 0x65, 0x71, 0x75,
  0x65, 0x6e, 0x74, 0x69, 0x61, 0x6c, 0x5f, 0x31, 0x2f, 0x6d, 0x61, 0x78,
  0x5f, 0x70, 0x6f, 0x6f, 0x6c, 0x69, 0x6e, 0x67, 0x31, 0x64, 0x5f, 0x31,
  0x2f, 0x4d, 0x61, 0x78, 0x50, 0x6f, 0x6f, 0x6c, 0x31, 0x64, 0x00, 0x00,
  0x04, 0x00, 0x00, 0x00, 0x01, 0x00, 0x00, 0x00, 0x01, 0x00, 0x00, 0x00,
  0x31, 0x00, 0x00, 0x00, 0x10, 0x00, 0x00, 0x00, 0x0e, 0xf7, 0xff, 0xff,
  0x00, 0x00, 0x00, 0x01, 0x14, 0x00, 0x00, 0x00, 0x24, 0x00, 0x00, 0x00,
  0x24, 0x00, 0x00, 0x00, 0x12, 0x00, 0x00, 0x00, 0x54, 0x00, 0x00, 0x00,
  0x04, 0x00, 0x00, 0x00, 0xff, 0xff, 0xff, 0xff, 0x01, 0x00, 0x00, 0x00,
  0x62, 0x00, 0x00, 0x00, 0x10, 0x00, 0x00, 0x00, 0xfc, 0xf6, 0xff, 0xff,
  0x31, 0x00, 0x00, 0x00, 0x73, 0x65, 0x71, 0x75, 0x65, 0x6e, 0x74, 0x69,
  0x61, 0x6c, 0x5f, 0x31, 0x2f, 0x6d, 0x61, 0x78, 0x5f, 0x70, 0x6f, 0x6f,
  0x6c, 0x69, 0x6e, 0x67, 0x31, 0x64, 0x5f, 0x31, 0x2f, 0x4d, 0x61, 0x78,
  0x50, 0x6f, 0x6f, 0x6c, 0x31, 0x64, 0x2f, 0x45, 0x78, 0x70, 0x61, 0x6e,
  0x64, 0x44, 0x69, 0x6d, 0x73, 0x00, 0x00, 0x00, 0x04, 0x00, 0x00, 0x00,
  0x01, 0x00, 0x00, 0x00, 0x01, 0x00, 0x00, 0x00, 0x62, 0x00, 0x00, 0x00,
  0x10, 0x00, 0x00, 0x00, 0x8e, 0xf7, 0xff, 0xff, 0x00, 0x00, 0x00, 0x01,
  0x14, 0x00, 0x00, 0x00, 0x20, 0x00, 0x00, 0x00, 0x20, 0x00, 0x00, 0x00,
  0x11, 0x00, 0x00, 0x00, 0x80, 0x00, 0x00, 0x00, 0x03, 0x00, 0x00, 0x00,
  0xff, 0xff, 0xff, 0xff, 0x62, 0x00, 0x00, 0x00, 0x10, 0x00, 0x00, 0x00,
  0x78, 0xf7, 0xff, 0xff, 0x63, 0x00, 0x00, 0x00, 0x73, 0x65, 0x71, 0x75,
  0x65, 0x6e, 0x74, 0x69, 0x61, 0x6c, 0x5f, 0x31, 0x2f, 0x63, 0x6f, 0x6e,
  0x76, 0x31, 0x64, 0x5f, 0x31, 0x2f, 0x52, 0x65, 0x6c, 0x75, 0x3b, 0x73,
  0x65, 0x71, 0x75, 0x65, 0x6e, 0x74, 0x69, 0x61, 0x6c, 0x5f, 0x31, 0x2f,
  0x63, 0x6f, 0x6e, 0x76, 0x31, 0x64, 0x5f, 0x31, 0x2f, 0x42, 0x69, 0x61,
  0x73, 0x41, 0x64, 0x64, 0x3b, 0x73, 0x65, 0x71, 0x75, 0x65, 0x6e, 0x74,
  0x69, 0x61, 0x6c, 0x5f, 0x31, 0x2f, 0x63, 0x6f, 0x6e, 0x76, 0x31, 0x64,
  0x5f, 0x31, 0x2f, 0x63, 0x6f, 0x6e, 0x76, 0x6f, 0x6c, 0x75, 0x74, 0x69,
  0x6f, 0x6e, 0x2f, 0x53, 0x71, 0x75, 0x65, 0x65, 0x7a, 0x65, 0x3b, 0x00,
  0x03, 0x00, 0x00, 0x00, 0x01, 0x00, 0x00, 0x00, 0x62, 0x00, 0x00, 0x00,
  0x10, 0x00, 0x00, 0x00, 0x36, 0xf8, 0xff, 0xff, 0x00, 0x00, 0x00, 0x01,
  0x14, 0x00, 0x00, 0x00, 0x24, 0x00, 0x00, 0x00, 0x24, 0x00, 0x00, 0x00,
  0x10, 0x00, 0x00, 0x00, 0xa8, 0x00, 0x00, 0x00, 0x04, 0x00, 0x00, 0x00,
  0xff, 0xff, 0xff, 0xff, 0x01, 0x00, 0x00, 0x00, 0x62, 0x00, 0x00, 0x00,
  0x10, 0x00, 0x00, 0x00, 0x24, 0xf8, 0xff, 0xff, 0x85, 0x00, 0x00, 0x00,
  0x73, 0x65, 0x71, 0x75, 0x65, 0x6e, 0x74, 0x69, 0x61, 0x6c, 0x5f, 0x31,
  0x2f, 0x63, 0x6f, 0x6e, 0x76, 0x31, 0x64, 0x5f, 0x31, 0x2f, 0x52, 0x65,
  0x6c, 0x75, 0x3b, 0x73, 0x65, 0x71, 0x75, 0x65, 0x6e, 0x74, 0x69, 0x61,
  0x6c, 0x5f, 0x31, 0x2f, 0x63, 0x6f, 0x6e, 0x76, 0x31, 0x64, 0x5f, 0x31,
  0x2f, 0x42, 0x69, 0x61, 0x73, 0x41, 0x64, 0x64, 0x3b, 0x73, 0x65, 0x71,
  0x75, 0x65, 0x6e, 0x74, 0x69, 0x61, 0x6c, 0x5f, 0x31, 0x2f, 0x63, 0x6f,
  0x6e, 0x76, 0x31, 0x64, 0x5f, 0x31, 0x2f, 0x63, 0x6f, 0x6e, 0x76, 0x6f,
  0x6c, 0x75, 0x74, 0x69, 0x6f, 0x6e, 0x2f, 0x53, 0x71, 0x75, 0x65, 0x65,
  0x7a, 0x65, 0x3b, 0x3b, 0x73, 0x65, 0x71, 0x75, 0x65, 0x6e, 0x74, 0x69,
  0x61, 0x6c, 0x5f, 0x31, 0x2f, 0x63, 0x6f, 0x6e, 0x76, 0x31, 0x64, 0x5f,
  0x31, 0x2f, 0x63, 0x6f, 0x6e, 0x76, 0x6f, 0x6c, 0x75, 0x74, 0x69, 0x6f,
  0x6e, 0x00, 0x00, 0x00, 0x04, 0x00, 0x00, 0x00, 0x01, 0x00, 0x00, 0x00,
  0x01, 0x00, 0x00, 0x00, 0x62, 0x00, 0x00, 0x00, 0x10, 0x00, 0x00, 0x00,
  0x0a, 0xf9, 0xff, 0xff, 0x00, 0x00, 0x00, 0x01, 0x14, 0x00, 0x00, 0x00,
  0x24, 0x00, 0x00, 0x00, 0x24, 0x00, 0x00, 0x00, 0x0f, 0x00, 0x00, 0x00,
  0x50, 0x00, 0x00, 0x00, 0x04, 0x00, 0x00, 0x00, 0xff, 0xff, 0xff, 0xff,
  0x01, 0x00, 0x00, 0x00, 0x64, 0x00, 0x00, 0x00, 0x0d, 0x00, 0x00, 0x00,
  0xf8, 0xf8, 0xff, 0xff, 0x2c, 0x00, 0x00, 0x00, 0x73, 0x65, 0x71, 0x75,
  0x65, 0x6e, 0x74, 0x69, 0x61, 0x6c, 0x5f, 0x31, 0x2f, 0x63, 0x6f, 0x6e,
  0x76, 0x31, 0x64, 0x5f, 0x31, 0x2f, 0x63, 0x6f, 0x6e, 0x76, 0x6f, 0x6c,
  0x75, 0x74, 0x69, 0x6f, 0x6e, 0x2f, 0x45, 0x78, 0x70, 0x61, 0x6e, 0x64,
  0x44, 0x69, 0x6d, 0x73, 0x00, 0x00, 0x00, 0x00, 0x04, 0x00, 0x00, 0x00,
  0x01, 0x00, 0x00, 0x00, 0x01, 0x00, 0x00, 0x00, 0x64, 0x00, 0x00, 0x00,
  0x0d, 0x00, 0x00, 0x00, 0xd6, 0xf9, 0xff, 0xff, 0x00, 0x00, 0x00, 0x01,
  0x14, 0x00, 0x00, 0x00, 0xa4, 0x01, 0x00, 0x00, 0x0e, 0x00, 0x00, 0x00,
  0x00, 0x00, 0x00, 0x09, 0xb0, 0x01, 0x00, 0x00, 0x2c, 0xfe, 0xff, 0xff,
  0x08, 0x00, 0x00, 0x00, 0x08, 0x01, 0x00, 0x00, 0x20, 0x00, 0x00, 0x00,
  0x00, 0x00, 0x00, 0x00, 0x00, 0x00, 0x00, 0x00, 0x00, 0x00, 0x00, 0x00,
  0x00, 0x00, 0x00, 0x00, 0x00, 0x00, 0x00, 0x00, 0x00, 0x00, 0x00, 0x00,
  0x00, 0x00, 0x00, 0x00, 0x00, 0x00, 0x00, 0x00, 0x00, 0x00, 0x00, 0x00,
  0x00, 0x00, 0x00, 0x00, 0x00, 0x00, 0x00, 0x00, 0x00, 0x00, 0x00, 0x00,
  0x00, 0x00, 0x00, 0x00, 0x00, 0x00, 0x00, 0x00, 0x00, 0x00, 0x00, 0x00,
  0x00, 0x00, 0x00, 0x00, 0x00, 0x00, 0x00, 0x00, 0x00, 0x00, 0x00, 0x00,
  0x00, 0x00, 0x00, 0x00, 0x00, 0x00, 0x00, 0x00, 0x00, 0x00, 0x00, 0x00,
  0x00, 0x00, 0x00, 0x00, 0x00, 0x00, 0x00, 0x00, 0x00, 0x00, 0x00, 0x00,
  0x00, 0x00, 0x00, 0x00, 0x00, 0x00, 0x00, 0x00, 0x00, 0x00, 0x00, 0x00,
  0x00, 0x00, 0x00, 0x00, 0x00, 0x00, 0x00, 0x00, 0x00, 0x00, 0x00, 0x00,
  0x00, 0x00, 0x00, 0x00, 0x00, 0x00, 0x00, 0x00, 0x00, 0x00, 0x00, 0x00,
  0x00, 0x00, 0x00, 0x00, 0x00, 0x00, 0x00, 0x00, 0x00, 0x00, 0x00, 0x00,
  0x00, 0x00, 0x00, 0x00, 0x00, 0x00, 0x00, 0x00, 0x00, 0x00, 0x00, 0x00,
  0x00, 0x00, 0x00, 0x00, 0x00, 0x00, 0x00, 0x00, 0x00, 0x00, 0x00, 0x00,
  0x00, 0x00, 0x00, 0x00, 0x00, 0x00, 0x00, 0x00, 0x00, 0x00, 0x00, 0x00,
  0x00, 0x00, 0x00, 0x00, 0x00, 0x00, 0x00, 0x00, 0x00, 0x00, 0x00, 0x00,
  0x00, 0x00, 0x00, 0x00, 0x00, 0x00, 0x00, 0x00, 0x00, 0x00, 0x00, 0x00,
  0x00, 0x00, 0x00, 0x00, 0x00, 0x00, 0x00, 0x00, 0x00, 0x00, 0x00, 0x00,
  0x00, 0x00, 0x00, 0x00, 0x00, 0x00, 0x00, 0x00, 0x00, 0x00, 0x00, 0x00,
  0x00, 0x00, 0x00, 0x00, 0x00, 0x00, 0x00, 0x00, 0x00, 0x00, 0x00, 0x00,
  0x00, 0x00, 0x00, 0x00, 0x00, 0x00, 0x00, 0x00, 0x00, 0x00, 0x00, 0x00,
  0x00, 0x00, 0x00, 0x00, 0x20, 0x00, 0x00, 0x00, 0x1f, 0x34, 0x20, 0x3b,
  0xf7, 0xaa, 0x17, 0x3b, 0x09, 0xf4, 0x26, 0x3b, 0x29, 0x91, 0x33, 0x3b,
  0xa9, 0x8b, 0x1d, 0x3b, 0xd3, 0xdb, 0x16, 0x3b, 0x37, 0xb8, 0x21, 0x3b,
  0x08, 0x0b, 0x0e, 0x3b, 0x5b, 0xa0, 0x2f, 0x3b, 0xda, 0x23, 0x1d, 0x3b,
  0x9f, 0xfc, 0x04, 0x3b, 0x7f, 0x5c, 0x18, 0x3b, 0x88, 0x99, 0x44, 0x3b,
  0x7c, 0x1b, 0x1d, 0x3b, 0x5b, 0xf3, 0x23, 0x3b, 0xfb, 0x77, 0x22, 0x3b,
  0x73, 0x8f, 0x23, 0x3b, 0x4e, 0x3d, 0x19, 0x3b, 0x1a, 0xe9, 0x18, 0x3b,
  0xd3, 0xc2, 0x0e, 0x3b, 0xd1, 0x88, 0x1d, 0x3b, 0xc1, 0x94, 0x1d, 0x3b,
  0x14, 0xa9, 0x24, 0x3b, 0x88, 0x28, 0x33, 0x3b, 0x07, 0x7a, 0x1b, 0x3b,
  0xff, 0x6a, 0x29, 0x3b, 0x9b, 0xeb, 0x2c, 0x3b, 0xf7, 0xd9, 0x21, 0x3b,
  0x13, 0x87, 0x15, 0x3b, 0x18, 0x3f, 0x1b, 0x3b, 0x61, 0x8e, 0x12, 0x3b,
  0x84, 0xdc, 0x22, 0x3b, 0x12, 0x00, 0x00, 0x00, 0x74, 0x66, 0x6c, 0x2e,
  0x70, 0x73, 0x65, 0x75, 0x64, 0x6f, 0x5f, 0x71, 0x63, 0x6f, 0x6e, 0x73,
  0x74, 0x31, 0x00, 0x00, 0x02, 0x00, 0x00, 0x00, 0x20, 0x00, 0x00, 0x00,
  0x20, 0x00, 0x00, 0x00, 0xaa, 0xfb, 0xff, 0xff, 0x00, 0x00, 0x00, 0x01,
  0x20, 0x00, 0x00, 0x00, 0xb4, 0x01, 0x00, 0x00, 0x0d, 0x00, 0x00, 0x00,
  0x00, 0x00, 0x00, 0x09, 0xc0, 0x01, 0x00, 0x00, 0x0c, 0x00, 0x0c, 0x00,
  0x00, 0x00, 0x00, 0x00, 0x08, 0x00, 0x04, 0x00, 0x0c, 0x00, 0x00, 0x00,
  0x08, 0x00, 0x00, 0x00, 0x0c, 0x01, 0x00, 0x00, 0x20, 0x00, 0x00, 0x00,
  0x00, 0x00, 0x00, 0x00, 0x00, 0x00, 0x00, 0x00, 0x00, 0x00, 0x00, 0x00,
  0x00, 0x00, 0x00, 0x00, 0x00, 0x00, 0x00, 0x00, 0x00, 0x00, 0x00, 0x00,
  0x00, 0x00, 0x00, 0x00, 0x00, 0x00, 0x00, 0x00, 0x00, 0x00, 0x00, 0x00,
  0x00, 0x00, 0x00, 0x00, 0x00, 0x00, 0x00, 0x00, 0x00, 0x00, 0x00, 0x00,
  0x00, 0x00, 0x00, 0x00, 0x00, 0x00, 0x00, 0x00, 0x00, 0x00, 0x00, 0x00,
  0x00, 0x00, 0x00, 0x00, 0x00, 0x00, 0x00, 0x00, 0x00, 0x00, 0x00, 0x00,
  0x00, 0x00, 0x00, 0x00, 0x00, 0x00, 0x00, 0x00, 0x00, 0x00, 0x00, 0x00,
  0x00, 0x00, 0x00, 0x00, 0x00, 0x00, 0x00, 0x00, 0x00, 0x00, 0x00, 0x00,
  0x00, 0x00, 0x00, 0x00, 0x00, 0x00, 0x00, 0x00, 0x00, 0x00, 0x00, 0x00,
  0x00, 0x00, 0x00, 0x00, 0x00, 0x00, 0x00, 0x00, 0x00, 0x00, 0x00, 0x00,
  0x00, 0x00, 0x00, 0x00, 0x00, 0x00, 0x00, 0x00, 0x00, 0x00, 0x00, 0x00,
  0x00, 0x00, 0x00, 0x00, 0x00, 0x00, 0x00, 0x00, 0x00, 0x00, 0x00, 0x00,
  0x00, 0x00, 0x00, 0x00, 0x00, 0x00, 0x00, 0x00, 0x00, 0x00, 0x00, 0x00,
  0x00, 0x00, 0x00, 0x00, 0x00, 0x00, 0x00, 0x00, 0x00, 0x00, 0x00, 0x00,
  0x00, 0x00, 0x00, 0x00, 0x00, 0x00, 0x00, 0x00, 0x00, 0x00, 0x00, 0x00,
  0x00, 0x00, 0x00, 0x00, 0x00, 0x00, 0x00, 0x00, 0x00, 0x00, 0x00, 0x00,
  0x00, 0x00, 0x00, 0x00, 0x00, 0x00, 0x00, 0x00, 0x00, 0x00, 0x00, 0x00,
  0x00, 0x00, 0x00, 0x00, 0x00, 0x00, 0x00, 0x00, 0x00, 0x00, 0x00, 0x00,
  0x00, 0x00, 0x00, 0x00, 0x00, 0x00, 0x00, 0x00, 0x00, 0x00, 0x00, 0x00,
  0x00, 0x00, 0x00, 0x00, 0x00, 0x00, 0x00, 0x00, 0x00, 0x00, 0x00, 0x00,
  0x00, 0x00, 0x00, 0x00, 0x00, 0x00, 0x00, 0x00, 0x00, 0x00, 0x00, 0x00,
  0x00, 0x00, 0x00, 0x00, 0x00, 0x00, 0x00, 0x00, 0x20, 0x00, 0x00, 0x00,
  0xd4, 0x04, 0xd4, 0x3a, 0x1d, 0x76, 0xed, 0x3a, 0xf3, 0xca, 0xcb, 0x3a,
  0xd7, 0x7a, 0xf6, 0x3a, 0xc7, 0xd5, 0xde, 0x3a, 0x24, 0x8f, 0xdb, 0x3a,
  0x91, 0x6d, 0xf6, 0x3a, 0x98, 0x8d, 0xf8, 0x3a, 0x9a, 0x9f, 0xe8, 0x3a,
  0xa1, 0x0b, 0xeb, 0x3a, 0x85, 0x88, 0xd9, 0x3a, 0xc6, 0xeb, 0xdc, 0x3a,
  0x81, 0x64, 0xd9, 0x3a, 0x29, 0x89, 0xc9, 0x3a, 0x1c, 0x75, 0xf5, 0x3a,
  0x2b, 0xba, 0xda, 0x3a, 0x55, 0x18, 0xf4, 0x3a, 0x32, 0x15, 0xe8, 0x3a,
  0x77, 0xc4, 0xf5, 0x3a, 0xda, 0xee, 0xf8, 0x3a, 0x02, 0xd4, 0xd1, 0x3a,
  0xfd, 0xee, 0xe6, 0x3a, 0xa5, 0xac, 0xe9, 0x3a, 0xe1, 0xde, 0xf3, 0x3a,
  0x0b, 0x46, 0xde, 0x3a, 0xce, 0x5d, 0xe2, 0x3a, 0x8f, 0x98, 0xd0, 0x3a,
  0xbc, 0x8b, 0xdb, 0x3a, 0xe8, 0x8c, 0xd6, 0x3a, 0x5f, 0x0a, 0xe2, 0x3a,
  0xd0, 0x4e, 0xd2, 0x3a, 0xfb, 0x77, 0x01, 0x3b, 0x11, 0x00, 0x00, 0x00,
  0x74, 0x66, 0x6c, 0x2e, 0x70, 0x73, 0x65, 0x75, 0x64, 0x6f, 0x5f, 0x71,
  0x63, 0x6f, 0x6e, 0x73, 0x74, 0x00, 0x00, 0x00, 0x04, 0x00, 0x00, 0x00,
  0x20, 0x00, 0x00, 0x00, 0x01, 0x00, 0x00, 0x00, 0x03, 0x00, 0x00, 0x00,
  0x10, 0x00, 0x00, 0x00, 0x96, 0xfd, 0xff, 0xff, 0x00, 0x00, 0x00, 0x01,
  0x14, 0x00, 0x00, 0x00, 0x14, 0x00, 0x00, 0x00, 0x0c, 0x00, 0x00, 0x00,
  0x00, 0x00, 0x00, 0x02, 0x20, 0x00, 0x00, 0x00, 0x20, 0xfd, 0xff, 0xff,
  0x10, 0x00, 0x00, 0x00, 0x61, 0x72, 0x69, 0x74, 0x68, 0x2e, 0x63, 0x6f,
  0x6e, 0x73, 0x74, 0x61, 0x6e, 0x74, 0x31, 0x30, 0x00, 0x00, 0x00, 0x00,
  0x01, 0x00, 0x00, 0x00, 0x03, 0x00, 0x00, 0x00, 0xd6, 0xfd, 0xff, 0xff,
  0x00, 0x00, 0x00, 0x01, 0x14, 0x00, 0x00, 0x00, 0x14, 0x00, 0x00, 0x00,
  0x0b, 0x00, 0x00, 0x00, 0x00, 0x00, 0x00, 0x02, 0x1c, 0x00, 0x00, 0x00,
  0x60, 0xfd, 0xff, 0xff, 0x0f, 0x00, 0x00, 0x00, 0x61, 0x72, 0x69, 0x74,
  0x68, 0x2e, 0x63, 0x6f, 0x6e, 0x73, 0x74, 0x61, 0x6e, 0x74, 0x39, 0x00,
  0x01, 0x00, 0x00, 0x00, 0x03, 0x00, 0x00, 0x00, 0x12, 0xfe, 0xff, 0xff,
  0x00, 0x00, 0x00, 0x01, 0x14, 0x00, 0x00, 0x00, 0x14, 0x00, 0x00, 0x00,
  0x0a, 0x00, 0x00, 0x00, 0x00, 0x00, 0x00, 0x02, 0x1c, 0x00, 0x00, 0x00,
  0x9c, 0xfd, 0xff, 0xff, 0x0f, 0x00, 0x00, 0x00, 0x61, 0x72, 0x69, 0x74,
  0x68, 0x2e, 0x63, 0x6f, 0x6e, 0x73, 0x74, 0x61, 0x6e, 0x74, 0x38, 0x00,
  0x01, 0x00, 0x00, 0x00, 0x03, 0x00, 0x00, 0x00, 0xd6, 0xfe, 0xff, 0xff,
  0x00, 0x00, 0x00, 0x01, 0x10, 0x00, 0x00, 0x00, 0x10, 0x00, 0x00, 0x00,
  0x09, 0x00, 0x00, 0x00, 0x1c, 0x00, 0x00, 0x00, 0xd4, 0xfd, 0xff, 0xff,
  0x0f, 0x00, 0x00, 0x00, 0x61, 0x72, 0x69, 0x74, 0x68, 0x2e, 0x63, 0x6f,
  0x6e, 0x73, 0x74, 0x61, 0x6e, 0x74, 0x37, 0x00, 0x01, 0x00, 0x00, 0x00,
  0x10, 0x00, 0x00, 0x00, 0x0e, 0xff, 0xff, 0xff, 0x00, 0x00, 0x00, 0x01,
  0x10, 0x00, 0x00, 0x00, 0x10, 0x00, 0x00, 0x00, 0x08, 0x00, 0x00, 0x00,
  0x1c, 0x00, 0x00, 0x00, 0x0c, 0xfe, 0xff, 0xff, 0x0f, 0x00, 0x00, 0x00,
  0x61, 0x72, 0x69, 0x74, 0x68, 0x2e, 0x63, 0x6f, 0x6e, 0x73, 0x74, 0x61,
  0x6e, 0x74, 0x36, 0x00, 0x01, 0x00, 0x00, 0x00, 0x20, 0x00, 0x00, 0x00,
  0x46, 0xff, 0xff, 0xff, 0x00, 0x00, 0x00, 0x01, 0x10, 0x00, 0x00, 0x00,
  0x10, 0x00, 0x00, 0x00, 0x07, 0x00, 0x00, 0x00, 0x1c, 0x00, 0x00, 0x00,
  0x44, 0xfe, 0xff, 0xff, 0x0f, 0x00, 0x00, 0x00, 0x61, 0x72, 0x69, 0x74,
  0x68, 0x2e, 0x63, 0x6f, 0x6e, 0x73, 0x74, 0x61, 0x6e, 0x74, 0x35, 0x00,
  0x04, 0x00, 0x00, 0x00, 0x10, 0x00, 0x00, 0x00, 0x01, 0x00, 0x00, 0x00,
  0x03, 0x00, 0x00, 0x00, 0x0d, 0x00, 0x00, 0x00, 0x8a, 0xff, 0xff, 0xff,
  0x00, 0x00, 0x00, 0x01, 0x10, 0x00, 0x00, 0x00, 0x10, 0x00, 0x00, 0x00,
  0x06, 0x00, 0x00, 0x00, 0x1c, 0x00, 0x00, 0x00, 0x88, 0xfe, 0xff, 0xff,
  0x0f, 0x00, 0x00, 0x00, 0x61, 0x72, 0x69, 0x74, 0x68, 0x2e, 0x63, 0x6f,
  0x6e, 0x73, 0x74, 0x61, 0x6e, 0x74, 0x34, 0x00, 0x02, 0x00, 0x00, 0x00,
  0x03, 0x00, 0x00, 0x00, 0x20, 0x00, 0x00, 0x00, 0xc6, 0xff, 0xff, 0xff,
  0x00, 0x00, 0x00, 0x01, 0x10, 0x00, 0x00, 0x00, 0x10, 0x00, 0x00, 0x00,
  0x05, 0x00, 0x00, 0x00, 0x1c, 0x00, 0x00, 0x00, 0xc4, 0xfe, 0xff, 0xff,
  0x0f, 0x00, 0x00, 0x00, 0x61, 0x72, 0x69, 0x74, 0x68, 0x2e, 0x63, 0x6f,
  0x6e, 0x73, 0x74, 0x61, 0x6e, 0x74, 0x33, 0x00, 0x01, 0x00, 0x00, 0x00,
  0x20, 0x00, 0x00, 0x00, 0x00, 0x00, 0x16, 0x00, 0x18, 0x00, 0x14, 0x00,
  0x00, 0x00, 0x10, 0x00, 0x0c, 0x00, 0x08, 0x00, 0x00, 0x00, 0x00, 0x00,
  0x00, 0x00, 0x07, 0x00, 0x16, 0x00, 0x00, 0x00, 0x00, 0x00, 0x00, 0x01,
  0x10, 0x00, 0x00, 0x00, 0x10, 0x00, 0x00, 0x00, 0x04, 0x00, 0x00, 0x00,
  0x1c, 0x00, 0x00, 0x00, 0x14, 0xff, 0xff, 0xff, 0x0f, 0x00, 0x00, 0x00,
  0x61, 0x72, 0x69, 0x74, 0x68, 0x2e, 0x63, 0x6f, 0x6e, 0x73, 0x74, 0x61,
  0x6e, 0x74, 0x32, 0x00, 0x01, 0x00, 0x00, 0x00, 0x03, 0x00, 0x00, 0x00,
  0xc6, 0xff, 0xff, 0xff, 0x00, 0x00, 0x00, 0x01, 0x14, 0x00, 0x00, 0x00,
  0x14, 0x00, 0x00, 0x00, 0x03, 0x00, 0x00, 0x00, 0x00, 0x00, 0x00, 0x02,
  0x1c, 0x00, 0x00, 0x00, 0x50, 0xff, 0xff, 0xff, 0x0f, 0x00, 0x00, 0x00,
  0x61, 0x72, 0x69, 0x74, 0x68, 0x2e, 0x63, 0x6f, 0x6e, 0x73, 0x74, 0x61,
  0x6e, 0x74, 0x31, 0x00, 0x00, 0x00, 0x00, 0x00, 0x00, 0x00, 0x16, 0x00,
  0x1c, 0x00, 0x18, 0x00, 0x17, 0x00, 0x10, 0x00, 0x0c, 0x00, 0x08, 0x00,
  0x00, 0x00, 0x00, 0x00, 0x00, 0x00, 0x07, 0x00, 0x16, 0x00, 0x00, 0x00,
  0x00, 0x00, 0x00, 0x01, 0x14, 0x00, 0x00, 0x00, 0x14, 0x00, 0x00, 0x00,
  0x02, 0x00, 0x00, 0x00, 0x00, 0x00, 0x00, 0x02, 0x1c, 0x00, 0x00, 0x00,
  0xa0, 0xff, 0xff, 0xff, 0x0e, 0x00, 0x00, 0x00, 0x61, 0x72, 0x69, 0x74,
  0x68, 0x2e, 0x63, 0x6f, 0x6e, 0x73, 0x74, 0x61, 0x6e, 0x74, 0x00, 0x00,
  0x00, 0x00, 0x00, 0x00, 0x00, 0x00, 0x16, 0x00, 0x1c, 0x00, 0x18, 0x00,
  0x00, 0x00, 0x14, 0x00, 0x10, 0x00, 0x0c, 0x00, 0x00, 0x00, 0x00, 0x00,
  0x08, 0x00, 0x07, 0x00, 0x16, 0x00, 0x00, 0x00, 0x00, 0x00, 0x00, 0x01,
  0x14, 0x00, 0x00, 0x00, 0x24, 0x00, 0x00, 0x00, 0x24, 0x00, 0x00, 0x00,
  0x01, 0x00, 0x00, 0x00, 0x40, 0x00, 0x00, 0x00, 0x03, 0x00, 0x00, 0x00,
  0xff, 0xff, 0xff, 0xff, 0x64, 0x00, 0x00, 0x00, 0x0d, 0x00, 0x00, 0x00,
  0x04, 0x00, 0x04, 0x00, 0x04, 0x00, 0x00, 0x00, 0x1e, 0x00, 0x00, 0x00,
  0x73, 0x65, 0x72, 0x76, 0x69, 0x6e, 0x67, 0x5f, 0x64, 0x65, 0x66, 0x61,
  0x75, 0x6c, 0x74, 0x5f, 0x6b, 0x65, 0x72, 0x61, 0x73, 0x5f, 0x74, 0x65,
  0x6e, 0x73, 0x6f, 0x72, 0x3a, 0x30, 0x00, 0x00, 0x03, 0x00, 0x00, 0x00,
  0x01, 0x00, 0x00, 0x00, 0x64, 0x00, 0x00, 0x00, 0x0d, 0x00, 0x00, 0x00,
  0x07, 0x00, 0x00, 0x00, 0x84, 0x00, 0x00, 0x00, 0x64, 0x00, 0x00, 0x00,
  0x48, 0x00, 0x00, 0x00, 0x38, 0x00, 0x00, 0x00, 0x28, 0x00, 0x00, 0x00,
  0x14, 0x00, 0x00, 0x00, 0x04, 0x00, 0x00, 0x00, 0xa4, 0xff, 0xff, 0xff,
  0x19, 0x00, 0x00, 0x00, 0x00, 0x00, 0x00, 0x19, 0xcc, 0xff, 0xff, 0xff,
  0x09, 0x00, 0x00, 0x00, 0x0c, 0x00, 0x00, 0x00, 0x00, 0x00, 0x00, 0x09,
  0xc0, 0xff, 0xff, 0xff, 0x28, 0x00, 0x00, 0x00, 0x00, 0x00, 0x00, 0x28,
  0xcc, 0xff, 0xff, 0xff, 0x11, 0x00, 0x00, 0x00, 0x00, 0x00, 0x00, 0x11,
  0xd8, 0xff, 0xff, 0xff, 0x16, 0x00, 0x00, 0x00, 0x00, 0x00, 0x00, 0x16,
  0x0c, 0x00, 0x10, 0x00, 0x0f, 0x00, 0x00, 0x00, 0x08, 0x00, 0x04, 0x00,
  0x0c, 0x00, 0x00, 0x00, 0x03, 0x00, 0x00, 0x00, 0x05, 0x00, 0x00, 0x00,
  0x00, 0x00, 0x00, 0x03, 0x0c, 0x00, 0x0c, 0x00, 0x0b, 0x00, 0x00, 0x00,
  0x00, 0x00, 0x04, 0x00, 0x0c, 0x00, 0x00, 0x00, 0x46, 0x00, 0x00, 0x00,
  0x00, 0x00, 0x00, 0x46
};
unsigned int keyword_model_tflite_len = 11344;
